{
  "version": "1.0",
  "truncation": null,
  "padding": null,
  "added_tokens": [
    {
      "id": 32256,
      "content": "<|endoftext|>",
      "single_word": false,
      "lstrip": false,
      "rstrip": false,
      "normalized": false,
      "special": true
    },
    {
      "id": 32257,
      "content": "<|pad|>",
      "single_word": false,
      "lstrip": false,
      "rstrip": false,
      "normalized": false,
      "special": true
    },
    {
      "id": 32258,
      "content": "<|system|>",
      "single_word": false,
      "lstrip": false,
      "rstrip": false,
      "normalized": false,
      "special": true
    },
    {
      "id": 32259,
      "content": "<|user|>",
      "single_word": false,
      "lstrip": false,
      "rstrip": false,
      "normalized": false,
      "special": true
    },
    {
      "id": 32260,
      "content": "<|assistant|>",
      "single_word": false,
      "lstrip": false,
      "rstrip": false,
      "normalized": false,
      "special": true
    },
    {
      "id": 32261,
      "content": "<|memory|>",
      "single_word": false,
      "lstrip": false,
      "rstrip": false,
      "normalized": false,
      "special": true
    },
    {
      "id": 32262,
      "content": "<|dialog|>",
      "single_word": false,
      "lstrip": false,
      "rstrip": false,
      "normalized": false,
      "special": true
    },
    {
      "id": 32263,
      "content": "<|task|>",
      "single_word": false,
      "lstrip": false,
      "rstrip": false,
      "normalized": false,
      "special": true
    },
    {
      "id": 32264,
      "content": "<|instruction|>",
      "single_word": false,
      "lstrip": false,
      "rstrip": false,
      "normalized": false,
      "special": true
    },
    {
      "id": 32265,
      "content": "###",
      "single_word": false,
      "lstrip": false,
      "rstrip": false,
      "normalized": false,
      "special": true
    }
  ],
  "normalizer": null,
  "pre_tokenizer": {
    "type": "ByteLevel",
    "add_prefix_space": true,
    "trim_offsets": true,
    "use_regex": true
  },
  "post_processor": null,
  "decoder": {
    "type": "ByteLevel",
    "add_prefix_space": true,
    "trim_offsets": true,
    "use_regex": true
  },
  "model": {
    "type": "BPE",
    "dropout": null,
    "unk_token": null,
    "continuing_subword_prefix": null,
    "end_of_word_suffix": null,
    "fuse_unk": false,
    "byte_fallback": false,
    "ignore_merges": false,
    "vocab": {
      "!": 0,
      "\"": 1,
      "#": 2,
      "$": 3,
      "%": 4,
      "&": 5,
      "'": 6,
      "(": 7,
      ")": 8,
      "*": 9,
      "+": 10,
      ",": 11,
      "-": 12,
      ".": 13,
      "/": 14,
      "0": 15,
      "1": 16,
      "2": 17,
      "3": 18,
      "4": 19,
      "5": 20,
      "6": 21,
      "7": 22,
      "8": 23,
      "9": 24,
      ":": 25,
      ";": 26,
      "<": 27,
      "=": 28,
      ">": 29,
      "?": 30,
      "@": 31,
      "A": 32,
      "B": 33,
      "C": 34,
      "D": 35,
      "E": 36,
      "F": 37,
      "G": 38,
      "H": 39,
      "I": 40,
      "J": 41,
      "K": 42,
      "L": 43,
      "M": 44,
      "N": 45,
      "O": 46,
      "P": 47,
      "Q": 48,
      "R": 49,
      "S": 50,
      "T": 51,
      "U": 52,
      "V": 53,
      "W": 54,
      "X": 55,
      "Y": 56,
      "Z": 57,
      "[": 58,
      "\\": 59,
      "]": 60,
      "^": 61,
      "_": 62,
      "`": 63,
      "a": 64,
      "b": 65,
      "c": 66,
      "d": 67,
      "e": 68,
      "f": 69,
      "g": 70,
      "h": 71,
      "i": 72,
      "j": 73,
      "k": 74,
      "l": 75,
      "m": 76,
      "n": 77,
      "o": 78,
      "p": 79,
      "q": 80,
      "r": 81,
      "s": 82,
      "t": 83,
      "u": 84,
      "v": 85,
      "w": 86,
      "x": 87,
      "y": 88,
      "z": 89,
      "{": 90,
      "|": 91,
      "}": 92,
      "~": 93,
      "¡": 94,
      "¢": 95,
      "£": 96,
      "¤": 97,
      "¥": 98,
      "¦": 99,
      "§": 100,
      "¨": 101,
      "©": 102,
      "ª": 103,
      "«": 104,
      "¬": 105,
      "®": 106,
      "¯": 107,
      "°": 108,
      "±": 109,
      "²": 110,
      "³": 111,
      "´": 112,
      "µ": 113,
      "¶": 114,
      "·": 115,
      "¸": 116,
      "¹": 117,
      "º": 118,
      "»": 119,
      "¼": 120,
      "½": 121,
      "¾": 122,
      "¿": 123,
      "À": 124,
      "Á": 125,
      "Â": 126,
      "Ã": 127,
      "Ä": 128,
      "Å": 129,
      "Æ": 130,
      "Ç": 131,
      "È": 132,
      "É": 133,
      "Ê": 134,
      "Ë": 135,
      "Ì": 136,
      "Í": 137,
      "Î": 138,
      "Ï": 139,
      "Ð": 140,
      "Ñ": 141,
      "Ò": 142,
      "Ó": 143,
      "Ô": 144,
      "Õ": 145,
      "Ö": 146,
      "×": 147,
      "Ø": 148,
      "Ù": 149,
      "Ú": 150,
      "Û": 151,
      "Ü": 152,
      "Ý": 153,
      "Þ": 154,
      "ß": 155,
      "à": 156,
      "á": 157,
      "â": 158,
      "ã": 159,
      "ä": 160,
      "å": 161,
      "æ": 162,
      "ç": 163,
      "è": 164,
      "é": 165,
      "ê": 166,
      "ë": 167,
      "ì": 168,
      "í": 169,
      "î": 170,
      "ï": 171,
      "ð": 172,
      "ñ": 173,
      "ò": 174,
      "ó": 175,
      "ô": 176,
      "õ": 177,
      "ö": 178,
      "÷": 179,
      "ø": 180,
      "ù": 181,
      "ú": 182,
      "û": 183,
      "ü": 184,
      "ý": 185,
      "þ": 186,
      "ÿ": 187,
      "Ā": 188,
      "ā": 189,
      "Ă": 190,
      "ă": 191,
      "Ą": 192,
      "ą": 193,
      "Ć": 194,
      "ć": 195,
      "Ĉ": 196,
      "ĉ": 197,
      "Ċ": 198,
      "ċ": 199,
      "Č": 200,
      "č": 201,
      "Ď": 202,
      "ď": 203,
      "Đ": 204,
      "đ": 205,
      "Ē": 206,
      "ē": 207,
      "Ĕ": 208,
      "ĕ": 209,
      "Ė": 210,
      "ė": 211,
      "Ę": 212,
      "ę": 213,
      "Ě": 214,
      "ě": 215,
      "Ĝ": 216,
      "ĝ": 217,
      "Ğ": 218,
      "ğ": 219,
      "Ġ": 220,
      "ġ": 221,
      "Ģ": 222,
      "ģ": 223,
      "Ĥ": 224,
      "ĥ": 225,
      "Ħ": 226,
      "ħ": 227,
      "Ĩ": 228,
      "ĩ": 229,
      "Ī": 230,
      "ī": 231,
      "Ĭ": 232,
      "ĭ": 233,
      "Į": 234,
      "į": 235,
      "İ": 236,
      "ı": 237,
      "Ĳ": 238,
      "ĳ": 239,
      "Ĵ": 240,
      "ĵ": 241,
      "Ķ": 242,
      "ķ": 243,
      "ĸ": 244,
      "Ĺ": 245,
      "ĺ": 246,
      "Ļ": 247,
      "ļ": 248,
      "Ľ": 249,
      "ľ": 250,
      "Ŀ": 251,
      "ŀ": 252,
      "Ł": 253,
      "ł": 254,
      "Ń": 255,
      "Ġt": 256,
      "Ġa": 257,
      "he": 258,
      "in": 259,
      "re": 260,
      "on": 261,
      "Ġthe": 262,
      "er": 263,
      "at": 264,
      "Ġo": 265,
      "Ġs": 266,
      "en": 267,
      "Ġc": 268,
      "es": 269,
      "Ġw": 270,
      "is": 271,
      "nd": 272,
      "it": 273,
      "or": 274,
      "Ġp": 275,
      "al": 276,
      "ed": 277,
      "Ġb": 278,
      "Ġf": 279,
      "an": 280,
      "Ġof": 281,
      "ing": 282,
      "Ġin": 283,
      "ar": 284,
      "ou": 285,
      "Ġm": 286,
      "Ġand": 287,
      "ic": 288,
      "Ġto": 289,
      "ion": 290,
      "Ġd": 291,
      "le": 292,
      "ro": 293,
      "as": 294,
      "ent": 295,
      "Ġh": 296,
      "Ġth": 297,
      "ct": 298,
      "Ġe": 299,
      "Ġre": 300,
      "il": 301,
      "om": 302,
      "ve": 303,
      "Ġl": 304,
      "st": 305,
      "Ġn": 306,
      "ly": 307,
      "Ġbe": 308,
      "âĢ": 309,
      "Ġis": 310,
      "ĠT": 311,
      "ation": 312,
      "se": 313,
      "ol": 314,
      "Ġg": 315,
      "im": 316,
      "et": 317,
      "id": 318,
      "ut": 319,
      "ce": 320,
      "ra": 321,
      "ch": 322,
      "ur": 323,
      "ot": 324,
      "ow": 325,
      "Ġfor": 326,
      "ĠA": 327,
      "ig": 328,
      "Ġu": 329,
      "Ġon": 330,
      "ĠS": 331,
      "Ġthat": 332,
      "Ġst": 333,
      "ver": 334,
      "ĠI": 335,
      "ĠC": 336,
      "ir": 337,
      "Ġy": 338,
      "ul": 339,
      "el": 340,
      "ith": 341,
      "am": 342,
      "ay": 343,
      "Ġas": 344,
      "Ġpro": 345,
      "Ġcon": 346,
      "ad": 347,
      "her": 348,
      "Ġare": 349,
      "Ġan": 350,
      "Ġwith": 351,
      "if": 352,
      "od": 353,
      "Ġwh": 354,
      "Ġal": 355,
      "Ġyou": 356,
      "Ġit": 357,
      "Ġor": 358,
      "ter": 359,
      "ĠThe": 360,
      "ĠM": 361,
      "Ġ(": 362,
      "ge": 363,
      "ment": 364,
      "ĠP": 365,
      "ate": 366,
      "th": 367,
      "Ġ1": 368,
      "ist": 369,
      "Ġde": 370,
      "op": 371,
      "ers": 372,
      "ess": 373,
      "ab": 374,
      "Ġex": 375,
      "ies": 376,
      "ect": 377,
      "ill": 378,
      "Ġwe": 379,
      "Ġsu": 380,
      "Ġcom": 381,
      "ĠB": 382,
      "Ġhe": 383,
      "res": 384,
      "ity": 385,
      "us": 386,
      "ive": 387,
      "âĢĻ": 388,
      "ore": 389,
      "est": 390,
      "ac": 391,
      "Ġv": 392,
      "um": 393,
      "os": 394,
      "Ġha": 395,
      "rom": 396,
      "ĠH": 397,
      "qu": 398,
      "em": 399,
      "ant": 400,
      "ĠW": 401,
      "Ġby": 402,
      "ld": 403,
      "iv": 404,
      "ke": 405,
      "ain": 406,
      "pp": 407,
      "nt": 408,
      "Ġat": 409,
      "igh": 410,
      "ĠD": 411,
      "Ġcan": 412,
      "ud": 413,
      "ĠE": 414,
      "Ġfrom": 415,
      "oc": 416,
      "Ġch": 417,
      "Ġwas": 418,
      "ĠR": 419,
      "Ġr": 420,
      "and": 421,
      "Ġne": 422,
      "ort": 423,
      "ial": 424,
      "ĠF": 425,
      "Ġse": 426,
      "ure": 427,
      "Ġ2": 428,
      "ical": 429,
      "Ġle": 430,
      "un": 431,
      "ĠâĢ": 432,
      "art": 433,
      "Ġnot": 434,
      "ĠN": 435,
      "ĠG": 436,
      "ri": 437,
      "Ġhave": 438,
      "ĠL": 439,
      "og": 440,
      "Ġsh": 441,
      "Ġen": 442,
      "Ġthis": 443,
      "Ġsp": 444,
      "pt": 445,
      "red": 446,
      "ich": 447,
      "Ġwor": 448,
      "ight": 449,
      "all": 450,
      "ions": 451,
      "rou": 452,
      "per": 453,
      "Ġab": 454,
      "Ġim": 455,
      "du": 456,
      "ost": 457,
      "ther": 458,
      "our": 459,
      "gh": 460,
      "ated": 461,
      "ine": 462,
      "Ġus": 463,
      "ould": 464,
      "00": 465,
      "ome": 466,
      "ff": 467,
      "ag": 468,
      "act": 469,
      "pl": 470,
      "Ġpl": 471,
      "ard": 472,
      "The": 473,
      "ide": 474,
      "out": 475,
      "Ġint": 476,
      "ell": 477,
      "Ġtheir": 478,
      "ĠO": 479,
      "age": 480,
      "iz": 481,
      "ans": 482,
      "ast": 483,
      "ear": 484,
      "Ġwhich": 485,
      "ult": 486,
      "ru": 487,
      "ak": 488,
      "ec": 489,
      "ous": 490,
      "Ġwhe": 491,
      "Ġk": 492,
      "Ġad": 493,
      "ĠIn": 494,
      "Ġcomp": 495,
      "Ġyour": 496,
      "ĠJ": 497,
      "Ġthey": 498,
      "Ġcont": 499,
      "ĠU": 500,
      "cc": 501,
      "ib": 502,
      "orm": 503,
      "Ġall": 504,
      "Ġinc": 505,
      "ust": 506,
      "end": 507,
      "Ġres": 508,
      "ations": 509,
      "ood": 510,
      "Ġdis": 511,
      "Ġwill": 512,
      "ap": 513,
      "vel": 514,
      "ip": 515,
      "Ġmore": 516,
      "ew": 517,
      "ong": 518,
      "ere": 519,
      "âĢĿ": 520,
      "Ġhas": 521,
      "ia": 522,
      "so": 523,
      "ary": 524,
      "ĠTh": 525,
      "able": 526,
      "Ġdo": 527,
      "ks": 528,
      "ence": 529,
      "Ġcl": 530,
      "are": 531,
      "ater": 532,
      "ual": 533,
      "Ġman": 534,
      "ild": 535,
      "ance": 536,
      "Ġper": 537,
      "Ġother": 538,
      "ach": 539,
      "Ġimp": 540,
      "Ġbut": 541,
      "ep": 542,
      "ents": 543,
      "ry": 544,
      "Ġte": 545,
      "ind": 546,
      "ign": 547,
      "Ġwere": 548,
      "Ġme": 549,
      "ose": 550,
      "Ġalso": 551,
      "ĠâĢľ": 552,
      "ass": 553,
      "Ġone": 554,
      "Ġapp": 555,
      "ress": 556,
      "ction": 557,
      "reat": 558,
      "ition": 559,
      "ase": 560,
      "ake": 561,
      "'s": 562,
      "av": 563,
      "Ġun": 564,
      "au": 565,
      "Ġso": 566,
      "Ġout": 567,
      "Ġj": 568,
      "ime": 569,
      "Ġar": 570,
      "ens": 571,
      "ice": 572,
      "ber": 573,
      "Ġ19": 574,
      "Ġev": 575,
      "Ġpart": 576,
      "Ġstud": 577,
      "form": 578,
      "very": 579,
      "one": 580,
      "ace": 581,
      "Ġsy": 582,
      "ord": 583,
      "ory": 584,
      "ack": 585,
      "ire": 586,
      "Ġabout": 587,
      "Ġsc": 588,
      "ount": 589,
      "ĠSt": 590,
      "ish": 591,
      "ok": 592,
      ").": 593,
      "ame": 594,
      "ang": 595,
      "ors": 596,
      "ces": 597,
      "Ġwho": 598,
      "Ġpe": 599,
      "ue": 600,
      "Ġcomm": 601,
      "ub": 602,
      "ite": 603,
      "ound": 604,
      "Ġthem": 605,
      "Ġpre": 606,
      "Ġhis": 607,
      "ree": 608,
      "ike": 609,
      "now": 610,
      "iff": 611,
      "ĠK": 612,
      "Ġqu": 613,
      "olog": 614,
      "ric": 615,
      "low": 616,
      "ĠIt": 617,
      "ie": 618,
      "ile": 619,
      "Ġup": 620,
      "Ġbec": 621,
      "Ġrec": 622,
      "Ġthan": 623,
      "Ġmay": 624,
      "Ġtra": 625,
      "ates": 626,
      "ail": 627,
      "Ġ\"": 628,
      "nder": 629,
      "ays": 630,
      "ople": 631,
      "Ġsome": 632,
      "Ġbeen": 633,
      "Ġwhen": 634,
      "ph": 635,
      "ings": 636,
      "ĠCh": 637,
      "ĠThis": 638,
      "Ġyear": 639,
      "Ġits": 640,
      "Ġthere": 641,
      "ian": 642,
      "Ġ20": 643,
      "Ġdiff": 644,
      "Ġwork": 645,
      "Ġinto": 646,
      "Ġover": 647,
      "Ġtime": 648,
      "ific": 649,
      "Ġag": 650,
      "mer": 651,
      "rit": 652,
      "Ġthese": 653,
      "vers": 654,
      "ough": 655,
      "Ġro": 656,
      "ren": 657,
      "ms": 658,
      "Ġgo": 659,
      "te": 660,
      "erv": 661,
      "ally": 662,
      "ĠV": 663,
      "ning": 664,
      "Ġour": 665,
      "Ġcons": 666,
      "Ġhow": 667,
      "rough": 668,
      "ons": 669,
      "lud": 670,
      "Ġbet": 671,
      "Ġuse": 672,
      "ond": 673,
      "Ġpeople": 674,
      "ys": 675,
      "Ġ3": 676,
      "int": 677,
      "we": 678,
      "Ġcol": 679,
      "Ġra": 680,
      "ause": 681,
      "tern": 682,
      "ll": 683,
      "stem": 684,
      "lic": 685,
      "Ġacc": 686,
      "ject": 687,
      "Ġact": 688,
      "Ġdes": 689,
      "Ġtr": 690,
      "Ġunder": 691,
      "ities": 692,
      "ove": 693,
      "ments": 694,
      "Ġmost": 695,
      "irst": 696,
      "Ġknow": 697,
      "Ġeff": 698,
      "Ġhad": 699,
      "alth": 700,
      "ious": 701,
      "Ġgen": 702,
      "lect": 703,
      "Ġlike": 704,
      "les": 705,
      "velop": 706,
      "Ġsuch": 707,
      "Ġtw": 708,
      "Ġbl": 709,
      "Ġnew": 710,
      "Ġrel": 711,
      "Ġsa": 712,
      "row": 713,
      "ient": 714,
      "Ġrep": 715,
      "ĠY": 716,
      "ook": 717,
      "Ġneed": 718,
      "ative": 719,
      "Ġwould": 720,
      "cess": 721,
      "Ġno": 722,
      "eth": 723,
      "ular": 724,
      "ational": 725,
      "Ġif": 726,
      "Ġinclud": 727,
      "ple": 728,
      "ating": 729,
      "Ġhel": 730,
      "Ġany": 731,
      "ced": 732,
      "Ġchild": 733,
      "yp": 734,
      "Ġpr": 735,
      "ob": 736,
      "Ġused": 737,
      "Ġprov": 738,
      "hed": 739,
      "Ġph": 740,
      "Ġonly": 741,
      "Ġfe": 742,
      "Ġprodu": 743,
      "Ġind": 744,
      "Ġhelp": 745,
      "Ġwhat": 746,
      "Ġpo": 747,
      "Ġdevelop": 748,
      "ased": 749,
      "ov": 750,
      "Ġsystem": 751,
      "Ġmod": 752,
      "Ġthrough": 753,
      "),": 754,
      "Ġfirst": 755,
      "Ġam": 756,
      "ble": 757,
      "Ġmany": 758,
      "Ġac": 759,
      "ise": 760,
      "ics": 761,
      "Ġoff": 762,
      "Ġem": 763,
      "ility": 764,
      "Ġspec": 765,
      "ath": 766,
      "Ġdiffere": 767,
      "Ġreg": 768,
      "ark": 769,
      "Ġob": 770,
      "oss": 771,
      "ĠUn": 772,
      "Ġtwo": 773,
      "rib": 774,
      "Ġdi": 775,
      "ool": 776,
      "Ġexp": 777,
      "oth": 778,
      "round": 779,
      "uring": 780,
      "fter": 781,
      "ful": 782,
      "hen": 783,
      "uc": 784,
      "ts": 785,
      "erm": 786,
      "Ġdec": 787,
      "Ġass": 788,
      "Ġadd": 789,
      "Ġatt": 790,
      "iss": 791,
      "ures": 792,
      "rop": 793,
      "ne": 794,
      "cy": 795,
      "ink": 796,
      "Ġinf": 797,
      "ram": 798,
      "als": 799,
      "ible": 800,
      "old": 801,
      "arch": 802,
      "Ġ201": 803,
      "ten": 804,
      "ange": 805,
      "ween": 806,
      "ower": 807,
      "Ġsur": 808,
      "ract": 809,
      "ution": 810,
      "Ġwell": 811,
      "ĠâĢĵ": 812,
      "ert": 813,
      "Ġsub": 814,
      "Ġshould": 815,
      "Ġ-": 816,
      "Ġco": 817,
      "ata": 818,
      "Ġsupp": 819,
      "Ġpres": 820,
      "Ġhigh": 821,
      "Ġrem": 822,
      "Ġinv": 823,
      "fore": 824,
      "Ġbetween": 825,
      "ife": 826,
      "ĠHe": 827,
      "hes": 828,
      "own": 829,
      "Ġfl": 830,
      "ied": 831,
      "xt": 832,
      "ng": 833,
      "Ġwater": 834,
      "Ġtrans": 835,
      "aw": 836,
      "ever": 837,
      "Ġlear": 838,
      "Ġsm": 839,
      "Ġhealth": 840,
      "ural": 841,
      "Ġyears": 842,
      "Ġwhere": 843,
      "Ġ4": 844,
      "gan": 845,
      "its": 846,
      "ade": 847,
      "sel": 848,
      "In": 849,
      "Ġinter": 850,
      "chn": 851,
      "Ġcould": 852,
      "ss": 853,
      "Ġrese": 854,
      "ick": 855,
      "Ġnum": 856,
      "ily": 857,
      "ĠWe": 858,
      "ident": 859,
      "Ġmake": 860,
      "ict": 861,
      "Ġ200": 862,
      "ants": 863,
      "Ġimport": 864,
      "ology": 865,
      "Ġbu": 866,
      "Ġform": 867,
      "Ġ5": 868,
      "Ġpers": 869,
      "uch": 870,
      "wn": 871,
      "Ġsim": 872,
      "Ġdifferent": 873,
      "Ġget": 874,
      "Ġgener": 875,
      "Ġeffect": 876,
      "Ġdisc": 877,
      "ience": 878,
      "chool": 879,
      "Ġexper": 880,
      "Ġinst": 881,
      "ited": 882,
      "Ġpol": 883,
      "Ġear": 884,
      "ines": 885,
      "ting": 886,
      "Ġher": 887,
      "Ġexam": 888,
      "oci": 889,
      "formation": 890,
      "Ġdet": 891,
      "ness": 892,
      "Ġlar": 893,
      "ork": 894,
      "ef": 895,
      "ont": 896,
      "ins": 897,
      "meric": 898,
      "Ġresult": 899,
      "ature": 900,
      "Ġsign": 901,
      "Ġvar": 902,
      "ically": 903,
      "land": 904,
      "gy": 905,
      "Ġfound": 906,
      "cept": 907,
      "ists": 908,
      "ually": 909,
      "Ġincre": 910,
      "ism": 911,
      "Ġlong": 912,
      "hat": 913,
      "ft": 914,
      "Ġbecause": 915,
      "oy": 916,
      "Ġcar": 917,
      "Ġthen": 918,
      "Ġafter": 919,
      "Ġmed": 920,
      "Ġtyp": 921,
      "Ġhum": 922,
      "get": 923,
      "Ġeven": 924,
      "Ġworld": 925,
      "Ġed": 926,
      "Ġresp": 927,
      "Ġvery": 928,
      "Ġcent": 929,
      "Ġdata": 930,
      "Ġext": 931,
      "Ġway": 932,
      "Ġjust": 933,
      "aking": 934,
      "Ġcount": 935,
      "Ġgra": 936,
      "ruct": 937,
      "Ġprocess": 938,
      "vent": 939,
      "iew": 940,
      "Ġke": 941,
      "urn": 942,
      "ety": 943,
      "Ġref": 944,
      "ives": 945,
      "other": 946,
      "Ġpat": 947,
      "Ġdist": 948,
      "ages": 949,
      "ivers": 950,
      "Ġ18": 951,
      "Ġsee": 952,
      "ollow": 953,
      "Ġset": 954,
      "Ġthose": 955,
      "ĠAmeric": 956,
      "Ġeach": 957,
      "Ġtechn": 958,
      "Ġprog": 959,
      "led": 960,
      "ases": 961,
      "Ġrequ": 962,
      "Ġloc": 963,
      "Ġca": 964,
      "ck": 965,
      "Ġfact": 966,
      "Ġpub": 967,
      "ps": 968,
      "ues": 969,
      "Ġproble": 970,
      "Ġsec": 971,
      "Ġcall": 972,
      "omm": 973,
      "cer": 974,
      "iron": 975,
      "Ġevery": 976,
      "ds": 977,
      "ized": 978,
      "Ġpartic": 979,
      "arm": 980,
      "Ġbeing": 981,
      "Ġsaid": 982,
      "Ġchildren": 983,
      "Ġcommun": 984,
      "Ġimportant": 985,
      "ved": 986,
      "Ġinformation": 987,
      "ĠAl": 988,
      ".âĢĿ": 989,
      "ody": 990,
      "Ġdep": 991,
      "ize": 992,
      "Ġdef": 993,
      "Ġshow": 994,
      "Ġstudy": 995,
      "ection": 996,
      "tle": 997,
      "Ġaut": 998,
      "Ġmon": 999,
      "Ġlife": 1000,
      "Ġusing": 1001,
      "Ġent": 1002,
      "..": 1003,
      "Ġduring": 1004,
      "ward": 1005,
      "eg": 1006,
      "ĠPro": 1007,
      "Ġart": 1008,
      "Ġmuch": 1009,
      "ices": 1010,
      "Ġlead": 1011,
      "Ġcre": 1012,
      "cent": 1013,
      "ather": 1014,
      "Ġshe": 1015,
      "ĠAs": 1016,
      "Ġlevel": 1017,
      "imes": 1018,
      "Ġfam": 1019,
      "Ġfollow": 1020,
      "Ġstr": 1021,
      "Ġboth": 1022,
      "Ġstudents": 1023,
      "Ġfind": 1024,
      "Ġread": 1025,
      "Ġsk": 1026,
      "Ġown": 1027,
      "ality": 1028,
      "vern": 1029,
      "Ġav": 1030,
      "Ġexpl": 1031,
      "Ġcomple": 1032,
      "Ġsame": 1033,
      "Ġfood": 1034,
      "gg": 1035,
      "the": 1036,
      "Ġmin": 1037,
      "ĠHow": 1038,
      "Ġmy": 1039,
      "Ġdoes": 1040,
      "Ġ6": 1041,
      "Ġcur": 1042,
      "ĠAn": 1043,
      "ĠThey": 1044,
      "Ġgrow": 1045,
      "ined": 1046,
      "Th": 1047,
      "Ġsol": 1048,
      "Ġright": 1049,
      "Ġmade": 1050,
      "any": 1051,
      "hip": 1052,
      "Ġperson": 1053,
      "ale": 1054,
      "Ġcor": 1055,
      "Ġins": 1056,
      "Ġend": 1057,
      "onom": 1058,
      "Ġgood": 1059,
      "io": 1060,
      "Ġback": 1061,
      "viron": 1062,
      "ted": 1063,
      ".,": 1064,
      "Ġtest": 1065,
      "ĠFor": 1066,
      "ĠIf": 1067,
      "ential": 1068,
      "Ġschool": 1069,
      "iel": 1070,
      "Ġval": 1071,
      "stand": 1072,
      "Ġpop": 1073,
      "Ġstate": 1074,
      "Ġmain": 1075,
      "und": 1076,
      "Ġche": 1077,
      "Ġsmall": 1078,
      "Ġgrou": 1079,
      "ĠAr": 1080,
      "Ġgl": 1081,
      "ock": 1082,
      "Ġclass": 1083,
      "ethod": 1084,
      "20": 1085,
      "Ġhist": 1086,
      "nce": 1087,
      "ivid": 1088,
      "19": 1089,
      "els": 1090,
      "read": 1091,
      "Ġwhile": 1092,
      "rol": 1093,
      "ix": 1094,
      "Ġoften": 1095,
      "inal": 1096,
      "Ġbefore": 1097,
      "der": 1098,
      "Ġfun": 1099,
      "Ġbo": 1100,
      "ien": 1101,
      "Ġagain": 1102,
      "Ġtreat": 1103,
      "Ġresearch": 1104,
      "ax": 1105,
      "Ġdesign": 1106,
      "ected": 1107,
      "Ġnumber": 1108,
      "Ġprot": 1109,
      "ince": 1110,
      "imate": 1111,
      "iqu": 1112,
      "ty": 1113,
      "ex": 1114,
      "ergy": 1115,
      "ĠSp": 1116,
      "Ġbr": 1117,
      "Ġless": 1118,
      "ars": 1119,
      "||": 1120,
      "Ġposs": 1121,
      "omen": 1122,
      "Ġvis": 1123,
      "Ġappro": 1124,
      "ulation": 1125,
      "dition": 1126,
      "ute": 1127,
      "ĠInd": 1128,
      "ral": 1129,
      "Ġlit": 1130,
      "Ġpower": 1131,
      "Ġprovid": 1132,
      "Ġredu": 1133,
      "000": 1134,
      "Ġdise": 1135,
      "ier": 1136,
      "Ġtake": 1137,
      "ished": 1138,
      "akes": 1139,
      "Ġserv": 1140,
      "Ġest": 1141,
      "Ġhuman": 1142,
      "Ġday": 1143,
      "ves": 1144,
      "Ġocc": 1145,
      "Ġmem": 1146,
      "irect": 1147,
      "Ġris": 1148,
      "Ġchar": 1149,
      "Ġec": 1150,
      "vironment": 1151,
      "ization": 1152,
      "Ġmethod": 1153,
      "ocial": 1154,
      "air": 1155,
      "Ġnow": 1156,
      "str": 1157,
      "ĠNew": 1158,
      "ĠSc": 1159,
      "Ġhand": 1160,
      "Ġorgan": 1161,
      "Ġactiv": 1162,
      "Ġ10": 1163,
      "Ġbody": 1164,
      "Ġcell": 1165,
      "Ġthree": 1166,
      "oh": 1167,
      "Ġsupport": 1168,
      "up": 1169,
      "Ġlarge": 1170,
      "rent": 1171,
      "ving": 1172,
      "ross": 1173,
      "iving": 1174,
      "Ġdown": 1175,
      "Ġhim": 1176,
      "Ġcommon": 1177,
      "osed": 1178,
      "uss": 1179,
      "ury": 1180,
      "Ġconf": 1181,
      "ered": 1182,
      "Ġaround": 1183,
      "ains": 1184,
      "Ġpoint": 1185,
      "ĠRe": 1186,
      "Ġbel": 1187,
      "Ġconst": 1188,
      "ital": 1189,
      "hers": 1190,
      "iversity": 1191,
      "ters": 1192,
      "eng": 1193,
      "acter": 1194,
      "iven": 1195,
      "Ġmust": 1196,
      "Ġ7": 1197,
      "ional": 1198,
      "Ġstart": 1199,
      "Ġplan": 1200,
      "aj": 1201,
      "ared": 1202,
      "ven": 1203,
      "ave": 1204,
      "Ġelect": 1205,
      "Ġser": 1206,
      "ium": 1207,
      "Ġlook": 1208,
      "Ġcle": 1209,
      "rain": 1210,
      "Ġequ": 1211,
      "Ġdem": 1212,
      "Ġgreat": 1213,
      "ets": 1214,
      "itions": 1215,
      "ah": 1216,
      "cl": 1217,
      "Ġallow": 1218,
      "com": 1219,
      "Ġop": 1220,
      "Ġaff": 1221,
      "Ġadv": 1222,
      "âĢĶ": 1223,
      "day": 1224,
      "Ġreport": 1225,
      "Ġcontin": 1226,
      "Ġexample": 1227,
      "Ġgovern": 1228,
      "Ġmet": 1229,
      "Ġincluding": 1230,
      ",âĢĿ": 1231,
      "Ġcare": 1232,
      "Ġland": 1233,
      "ĠBut": 1234,
      "anc": 1235,
      "ull": 1236,
      "ee": 1237,
      "Ġdid": 1238,
      "Ġ8": 1239,
      "Ġwrit": 1240,
      "Ġunderstand": 1241,
      "ering": 1242,
      "self": 1243,
      "ĠThere": 1244,
      "Ġdr": 1245,
      "ĠYou": 1246,
      "Ġimpro": 1247,
      "ouse": 1248,
      "Ġret": 1249,
      "Ġpract": 1250,
      "Ġbeh": 1251,
      "Ġpresent": 1252,
      "ner": 1253,
      "Ġprop": 1254,
      "angu": 1255,
      "Ġbuild": 1256,
      "Ġmat": 1257,
      "gen": 1258,
      "ired": 1259,
      "esp": 1260,
      "Ġperform": 1261,
      "Ġanal": 1262,
      "Ġgu": 1263,
      "âĢĵ": 1264,
      "ash": 1265,
      "itive": 1266,
      "way": 1267,
      "Ġcalled": 1268,
      "Ġknown": 1269,
      "orn": 1270,
      "ividual": 1271,
      "ially": 1272,
      "Ġeduc": 1273,
      "Ġpublic": 1274,
      "ability": 1275,
      "Ġthough": 1276,
      "iver": 1277,
      "Ġquest": 1278,
      "raph": 1279,
      "10": 1280,
      "Ġstill": 1281,
      "ĠâĢĺ": 1282,
      "aterial": 1283,
      "Ġcour": 1284,
      "ron": 1285,
      "This": 1286,
      "Ġ9": 1287,
      "outh": 1288,
      "Ġlearning": 1289,
      "ĠWh": 1290,
      "Ġeas": 1291,
      "inc": 1292,
      "ger": 1293,
      "line": 1294,
      "Ġsom": 1295,
      "sp": 1296,
      "ids": 1297,
      "ĠAnd": 1298,
      "iod": 1299,
      "Ġide": 1300,
      "erest": 1301,
      "ĠThese": 1302,
      "Ġplace": 1303,
      "oms": 1304,
      "Ġtem": 1305,
      "Ġstand": 1306,
      "rodu": 1307,
      "lish": 1308,
      "ank": 1309,
      "ior": 1310,
      "Ġfew": 1311,
      "ination": 1312,
      "Ġwithin": 1313,
      "de": 1314,
      "Ġben": 1315,
      "me": 1316,
      "Ġwithout": 1317,
      "Ġcap": 1318,
      "ption": 1319,
      "Ġident": 1320,
      "ining": 1321,
      "Ġcaus": 1322,
      "Ġgre": 1323,
      "ources": 1324,
      "Ġlearn": 1325,
      "Ġenergy": 1326,
      "Ġmight": 1327,
      "Ġenvironment": 1328,
      "Ġthink": 1329,
      "Ġchang": 1330,
      "ertain": 1331,
      "tt": 1332,
      "Ġindividual": 1333,
      "ason": 1334,
      "Ġvari": 1335,
      "Ġpot": 1336,
      "Ġiss": 1337,
      "ense": 1338,
      "Ġdevelopment": 1339,
      "Ġchange": 1340,
      "Ġphys": 1341,
      "ĠDe": 1342,
      "ived": 1343,
      "ĠIs": 1344,
      "oun": 1345,
      "Ġproduct": 1346,
      "bers": 1347,
      "ording": 1348,
      "Ġsocial": 1349,
      "Ġpur": 1350,
      "agn": 1351,
      "âĢľ": 1352,
      "Ġpar": 1353,
      "Ġsym": 1354,
      "ĠEng": 1355,
      "Ġve": 1356,
      "ify": 1357,
      ".\"": 1358,
      "ental": 1359,
      "Ġpos": 1360,
      "Ġlight": 1361,
      "Ġdirect": 1362,
      "less": 1363,
      "Ġwant": 1364,
      "Ġmeas": 1365,
      "Ġproject": 1366,
      "Ġplay": 1367,
      "Ġmaterial": 1368,
      "Ġprof": 1369,
      "ĠHowever": 1370,
      "Ġimm": 1371,
      "Ġreal": 1372,
      "ield": 1373,
      "man": 1374,
      "Ġeng": 1375,
      "ified": 1376,
      "Ġair": 1377,
      "ĠCon": 1378,
      "ration": 1379,
      "Ġdisease": 1380,
      "sc": 1381,
      "Ġbas": 1382,
      "Ġsl": 1383,
      "atic": 1384,
      "Ġ199": 1385,
      "iness": 1386,
      "ĠUniversity": 1387,
      "ĠAd": 1388,
      "aper": 1389,
      "Ġbest": 1390,
      "Ġsit": 1391,
      "Ġcontrol": 1392,
      "Ġbre": 1393,
      "ries": 1394,
      "arent": 1395,
      "alk": 1396,
      "Ġarea": 1397,
      "ently": 1398,
      "eral": 1399,
      "ource": 1400,
      "Ġdon": 1401,
      "ological": 1402,
      "ug": 1403,
      "ision": 1404,
      "Ġpass": 1405,
      "Ġlow": 1406,
      "ton": 1407,
      "Ġdesc": 1408,
      "ained": 1409,
      "atural": 1410,
      "Ġanother": 1411,
      "ajor": 1412,
      "bs": 1413,
      "ĠAmerican": 1414,
      "illion": 1415,
      "ccess": 1416,
      "Ġproper": 1417,
      "Ġet": 1418,
      "orth": 1419,
      "Ġ&": 1420,
      "Ġwomen": 1421,
      "Ġsever": 1422,
      "Ġinterest": 1423,
      "Ġinclude": 1424,
      "ians": 1425,
      "Ġant": 1426,
      "Ġbelie": 1427,
      "Ġhome": 1428,
      "Ġbetter": 1429,
      "Ġmark": 1430,
      "Ġrisk": 1431,
      "ware": 1432,
      "ris": 1433,
      "Ġblood": 1434,
      "Ġmus": 1435,
      "to": 1436,
      "erc": 1437,
      "Ġlaw": 1438,
      "ern": 1439,
      "Ġoper": 1440,
      "Ġprovide": 1441,
      "Ġcult": 1442,
      "Ġmult": 1443,
      "Ġlangu": 1444,
      "Ġrest": 1445,
      "Ġbased": 1446,
      "Ġpain": 1447,
      "ĠTo": 1448,
      "ĠEx": 1449,
      "Ġbecome": 1450,
      "Ġavail": 1451,
      "Ġopp": 1452,
      "ider": 1453,
      "Ġsignific": 1454,
      "ples": 1455,
      "Ġprogram": 1456,
      "etw": 1457,
      "Ġ$": 1458,
      "ention": 1459,
      "Ġorder": 1460,
      "arc": 1461,
      "Ġess": 1462,
      "ator": 1463,
      "Ġproblem": 1464,
      "Ġagainst": 1465,
      "Ġmodel": 1466,
      "az": 1467,
      "Ġnon": 1468,
      "Ġeconom": 1469,
      "Ġearly": 1470,
      "ik": 1471,
      "ients": 1472,
      "ĠPh": 1473,
      "ĠSh": 1474,
      "ats": 1475,
      "Ġtop": 1476,
      "Ġparticular": 1477,
      "eed": 1478,
      "Ġmove": 1479,
      "Ġsecond": 1480,
      "Ġold": 1481,
      "It": 1482,
      "view": 1483,
      "omp": 1484,
      "lished": 1485,
      "'t": 1486,
      "Ġter": 1487,
      "ways": 1488,
      "Ġanim": 1489,
      "hor": 1490,
      "Ġele": 1491,
      "Ġtre": 1492,
      "Ġleg": 1493,
      "Ġwar": 1494,
      "here": 1495,
      "Ġdev": 1496,
      "ills": 1497,
      "lu": 1498,
      "of": 1499,
      "gin": 1500,
      "Ġgovernment": 1501,
      "Ġlim": 1502,
      "Ġcurrent": 1503,
      "ĠCl": 1504,
      "Ġaddition": 1505,
      "Ġkeep": 1506,
      "Ġseveral": 1507,
      "Ġlast": 1508,
      "Ġindu": 1509,
      "Ġmil": 1510,
      "ĠRes": 1511,
      "Ġhere": 1512,
      "Ġmajor": 1513,
      "Ġprom": 1514,
      "ogn": 1515,
      "Ġfore": 1516,
      "ission": 1517,
      "Ġgroup": 1518,
      "ead": 1519,
      "Ġhistory": 1520,
      "icle": 1521,
      "Ġmeans": 1522,
      "Ġcause": 1523,
      "Ġoccur": 1524,
      "rist": 1525,
      "Ġfin": 1526,
      "ĠWhen": 1527,
      "Ġtoo": 1528,
      "rap": 1529,
      "ards": 1530,
      "Ġpossible": 1531,
      "Ġcost": 1532,
      "Ġhig": 1533,
      "Ġsaf": 1534,
      "Ġinvol": 1535,
      "ograph": 1536,
      "Ġfamily": 1537,
      "Ġmean": 1538,
      "urther": 1539,
      "amp": 1540,
      "Ġcomput": 1541,
      "Ġperiod": 1542,
      "Ġorig": 1543,
      "oid": 1544,
      "Ġstruct": 1545,
      "Ġable": 1546,
      "irc": 1547,
      "Ġbenef": 1548,
      "ret": 1549,
      "ilar": 1550,
      "use": 1551,
      "Ġresults": 1552,
      "Ġ[": 1553,
      "Ġnear": 1554,
      "resent": 1555,
      "Ġobject": 1556,
      "Ġopen": 1557,
      "ories": 1558,
      "ĠâĢĶ": 1559,
      "Ġcal": 1560,
      "Ġunt": 1561,
      "ĠQ": 1562,
      "ĠUnited": 1563,
      "Ġ15": 1564,
      "Ġavailable": 1565,
      "ote": 1566,
      "Ġsay": 1567,
      "Ġspecies": 1568,
      "idence": 1569,
      "par": 1570,
      "ane": 1571,
      "Ġpercent": 1572,
      "olution": 1573,
      "ocus": 1574,
      "Ġamong": 1575,
      "ised": 1576,
      "Ġbus": 1577,
      "Ġplant": 1578,
      "Ġsignificant": 1579,
      "ĠCol": 1580,
      "ina": 1581,
      "Ġel": 1582,
      "ances": 1583,
      "Ġhapp": 1584,
      "ploy": 1585,
      "Ġsince": 1586,
      "elf": 1587,
      "Ġmen": 1588,
      "ĠPl": 1589,
      "sy": 1590,
      "ling": 1591,
      "Ġscient": 1592,
      "Ġ.": 1593,
      "por": 1594,
      "cing": 1595,
      "Ġmar": 1596,
      "urop": 1597,
      "Ġareas": 1598,
      "Ġfac": 1599,
      "Ġlab": 1600,
      "oint": 1601,
      "Ġproblems": 1602,
      "though": 1603,
      "Ġcase": 1604,
      "ole": 1605,
      "ots": 1606,
      "Ġfeel": 1607,
      "ended": 1608,
      "Ġcond": 1609,
      "ĠSe": 1610,
      "Ġthings": 1611,
      "ĠGod": 1612,
      "Ġtru": 1613,
      "Ġfre": 1614,
      "Ġdel": 1615,
      "Ġtreatment": 1616,
      "Ġsystems": 1617,
      "ends": 1618,
      "Ġothers": 1619,
      "ĠZ": 1620,
      "Ġaccess": 1621,
      "Ġbi": 1622,
      "Ġfour": 1623,
      "Ġsays": 1624,
      "Ġtimes": 1625,
      "Ġlocal": 1626,
      "ression": 1627,
      "ames": 1628,
      "ĠCan": 1629,
      "Ġname": 1630,
      "Ġfollowing": 1631,
      "ably": 1632,
      "Ġcountry": 1633,
      "osp": 1634,
      "Ġhead": 1635,
      "Ġprevent": 1636,
      "ledge": 1637,
      "ĠComm": 1638,
      "Ġconn": 1639,
      "Ġcertain": 1640,
      "Ġnatural": 1641,
      "Ġsuccess": 1642,
      "Ġlo": 1643,
      "Ġview": 1644,
      "Ġfree": 1645,
      "ĠAt": 1646,
      "Ġdue": 1647,
      "ones": 1648,
      "ĠStates": 1649,
      "Ġpost": 1650,
      "une": 1651,
      "br": 1652,
      "Ġwee": 1653,
      "Ġfunction": 1654,
      "Ġage": 1655,
      "Ġtype": 1656,
      "Ġhard": 1657,
      "Ġrun": 1658,
      "Ġpaper": 1659,
      "ox": 1660,
      "Ġrece": 1661,
      "ĠWhat": 1662,
      "Ġcome": 1663,
      "Ġimpact": 1664,
      "Ġgr": 1665,
      "Ġfocus": 1666,
      "Ġmonth": 1667,
      "icult": 1668,
      "ication": 1669,
      "Ġapplic": 1670,
      "Ġlist": 1671,
      "Ġopt": 1672,
      "ggest": 1673,
      "ĠEn": 1674,
      "Ġlanguage": 1675,
      "over": 1676,
      "Ġassoci": 1677,
      "be": 1678,
      ",\"": 1679,
      "Ġlevels": 1680,
      "Ġflow": 1681,
      "Ġ17": 1682,
      "Ġcreat": 1683,
      "urope": 1684,
      "Ġgiven": 1685,
      "Ġbehav": 1686,
      "Ġexist": 1687,
      "Ġbro": 1688,
      "Ġintern": 1689,
      "Ġpress": 1690,
      "Ġamount": 1691,
      "Ġinvest": 1692,
      "not": 1693,
      "Ġvol": 1694,
      "ww": 1695,
      "ysis": 1696,
      "Ġ12": 1697,
      "Ġput": 1698,
      "Ġcomb": 1699,
      "Ġpotential": 1700,
      "ope": 1701,
      "uture": 1702,
      "ĠTe": 1703,
      "Ġnetw": 1704,
      "ured": 1705,
      "Ġlittle": 1706,
      "ring": 1707,
      "ately": 1708,
      "Ġmaking": 1709,
      "Ġcho": 1710,
      "Ġsuggest": 1711,
      "hy": 1712,
      "Ġobs": 1713,
      "What": 1714,
      "hem": 1715,
      "Ġdeterm": 1716,
      "Ġcells": 1717,
      "Ġshort": 1718,
      "We": 1719,
      "Ġvir": 1720,
      "Ġhy": 1721,
      "Ġfar": 1722,
      "ither": 1723,
      "Ġbook": 1724,
      "ively": 1725,
      "Ġbir": 1726,
      "ĠCent": 1727,
      "atory": 1728,
      "ortun": 1729,
      "Ġsing": 1730,
      "18": 1731,
      "vious": 1732,
      "ides": 1733,
      "12": 1734,
      "ects": 1735,
      "Ġlet": 1736,
      "ĠOn": 1737,
      "ribut": 1738,
      "Ġ0": 1739,
      "Ġyoung": 1740,
      "orld": 1741,
      "ode": 1742,
      "ification": 1743,
      "aps": 1744,
      "ged": 1745,
      "Ġsw": 1746,
      "chie": 1747,
      "ething": 1748,
      "Ġenc": 1749,
      "ĠAf": 1750,
      "Ġspace": 1751,
      "Ġturn": 1752,
      "Ġlater": 1753,
      "oks": 1754,
      "__": 1755,
      "Ġuntil": 1756,
      "ĠBe": 1757,
      "ĠNational": 1758,
      "Ġrad": 1759,
      "ann": 1760,
      "ĠEurope": 1761,
      "Ġimprove": 1762,
      "face": 1763,
      "stit": 1764,
      "agement": 1765,
      "Ġvarious": 1766,
      "Ġpred": 1767,
      "Ġline": 1768,
      "Ġcirc": 1769,
      "Ġer": 1770,
      "cle": 1771,
      "Ġcharacter": 1772,
      "If": 1773,
      "Ġsimilar": 1774,
      "Ġgeneral": 1775,
      "Ġalong": 1776,
      "Ġfil": 1777,
      "Ġacross": 1778,
      "Ġrele": 1779,
      "Ġpolit": 1780,
      "aken": 1781,
      "ĠChrist": 1782,
      "Ġeducation": 1783,
      "Ġlikely": 1784,
      "ĠOr": 1785,
      "Ġincrease": 1786,
      "icro": 1787,
      "Ġdays": 1788,
      "Ġseem": 1789,
      "asing": 1790,
      "Ġcommunity": 1791,
      "Ġheart": 1792,
      "Ġdifficult": 1793,
      "Ġrepresent": 1794,
      "ators": 1795,
      "Ġconditions": 1796,
      "Ġappear": 1797,
      "ending": 1798,
      "ĠFr": 1799,
      "Ġcrit": 1800,
      "Ġtechnology": 1801,
      "ape": 1802,
      "ecially": 1803,
      "Ġchall": 1804,
      "Ġusually": 1805,
      "ĠUS": 1806,
      "ruction": 1807,
      "orts": 1808,
      "etic": 1809,
      "aster": 1810,
      "Ġconsum": 1811,
      "pr": 1812,
      "ateg": 1813,
      "ĠAll": 1814,
      "app": 1815,
      "Ġworks": 1816,
      "ried": 1817,
      "Ġteac": 1818,
      "aining": 1819,
      "Ġspecific": 1820,
      "Ġdra": 1821,
      "Ġalways": 1822,
      "Ġcourse": 1823,
      "Ġdeath": 1824,
      "obal": 1825,
      "Ġsomething": 1826,
      "isc": 1827,
      "ique": 1828,
      "Ġfuture": 1829,
      "Ġill": 1830,
      "Ġpast": 1831,
      "Ġdiscuss": 1832,
      "Ġcreate": 1833,
      "Ġdescrib": 1834,
      "Ġgive": 1835,
      "Ġwords": 1836,
      "Ġrequire": 1837,
      "Ġhigher": 1838,
      "Ġtemper": 1839,
      "Ġclear": 1840,
      "icient": 1841,
      "Ġ16": 1842,
      "ohn": 1843,
      "ilities": 1844,
      "Ġachie": 1845,
      "ler": 1846,
      "ored": 1847,
      "Ġexperience": 1848,
      "Ġstrong": 1849,
      "Ġauthor": 1850,
      "Ġsens": 1851,
      "especially": 1852,
      "Ġneeds": 1853,
      "apt": 1854,
      "ociety": 1855,
      "idd": 1856,
      "Ġey": 1857,
      "Ġrecord": 1858,
      "istic": 1859,
      "Ġmot": 1860,
      "Ġtool": 1861,
      "af": 1862,
      "ember": 1863,
      "Ġnecess": 1864,
      "Ġ'": 1865,
      "Ġapproach": 1866,
      "Ġbrain": 1867,
      "50": 1868,
      "Ġspecial": 1869,
      "Ġpopulation": 1870,
      "ours": 1871,
      "lement": 1872,
      "11": 1873,
      "atures": 1874,
      "Ġparent": 1875,
      "ĠSo": 1876,
      "Ġtoday": 1877,
      "As": 1878,
      "Ġchanges": 1879,
      "Ġmillion": 1880,
      "min": 1881,
      "ĠMed": 1882,
      "ptoms": 1883,
      "Ġcancer": 1884,
      "mit": 1885,
      "Ġwhy": 1886,
      "Ġcentury": 1887,
      "Ġknowledge": 1888,
      "Ġkey": 1889,
      "Ġprofess": 1890,
      "Ġestab": 1891,
      "put": 1892,
      "Ġhowever": 1893,
      "ask": 1894,
      "atch": 1895,
      "rug": 1896,
      "Ġabove": 1897,
      "ĠSy": 1898,
      "Ġnext": 1899,
      "for": 1900,
      "Ġdam": 1901,
      "Ġtoget": 1902,
      "Ġleast": 1903,
      "Ġtogether": 1904,
      "Ġsuff": 1905,
      "ency": 1906,
      "Ġconsider": 1907,
      "Ġcountries": 1908,
      "Ġbegin": 1909,
      "sw": 1910,
      "ĠBl": 1911,
      "most": 1912,
      "Ġcomplete": 1913,
      "Ġside": 1914,
      "aces": 1915,
      "Ġcy": 1916,
      "Ġmov": 1917,
      "iple": 1918,
      "Ġrespons": 1919,
      "ĠAfric": 1920,
      "Ġresearc": 1921,
      "reen": 1922,
      "Ġeffects": 1923,
      "Ġintrodu": 1924,
      "Ġbusiness": 1925,
      "Ġtry": 1926,
      "ray": 1927,
      "Ġstudies": 1928,
      "ĠBrit": 1929,
      "Ġkind": 1930,
      "Ġespecially": 1931,
      "Ġask": 1932,
      "Ġworking": 1933,
      "duct": 1934,
      "Ġterm": 1935,
      "Ġfurther": 1936,
      "Ġrelations": 1937,
      "Ġpatients": 1938,
      "aves": 1939,
      "ĠEar": 1940,
      "Ġcolle": 1941,
      "Ġplants": 1942,
      "iting": 1943,
      "Ġtext": 1944,
      "Ġprim": 1945,
      "Ġtypes": 1946,
      "ires": 1947,
      "omes": 1948,
      "based": 1949,
      "eter": 1950,
      "There": 1951,
      "aring": 1952,
      "Ġstep": 1953,
      "Ġcases": 1954,
      "erence": 1955,
      "selves": 1956,
      "Ġleft": 1957,
      "oney": 1958,
      "Ġnever": 1959,
      "Ġfull": 1960,
      "Ġways": 1961,
      "port": 1962,
      "ables": 1963,
      "by": 1964,
      "Ġinflu": 1965,
      "Ġaway": 1966,
      "nal": 1967,
      "amm": 1968,
      "Ġsubject": 1969,
      "let": 1970,
      "ument": 1971,
      "Ġpolic": 1972,
      "Ġlower": 1973,
      "Ġcr": 1974,
      "ilt": 1975,
      "Ġself": 1976,
      "Ġenough": 1977,
      "Ġreason": 1978,
      "Ġnorm": 1979,
      "ales": 1980,
      "How": 1981,
      "Ġteam": 1982,
      "uation": 1983,
      "Ġchem": 1984,
      "acc": 1985,
      "oot": 1986,
      "ges": 1987,
      "Ġrole": 1988,
      "St": 1989,
      "verage": 1990,
      "Ġz": 1991,
      "lo": 1992,
      "Ġdom": 1993,
      "Ġwhether": 1994,
      "Ġhaving": 1995,
      "ĠGen": 1996,
      "Ġaccount": 1997,
      "oring": 1998,
      "Ġphysical": 1999,
      "alf": 2000,
      "//": 2001,
      "Ġsum": 2002,
      "Ġquality": 2003,
      "ĠWith": 2004,
      "thing": 2005,
      "side": 2006,
      "Ġloss": 2007,
      "Ġconcer": 2008,
      "ipp": 2009,
      "rel": 2010,
      "Ġens": 2011,
      "hing": 2012,
      "Ġmethods": 2013,
      "Ġground": 2014,
      "ned": 2015,
      "ibility": 2016,
      "Ġgoing": 2017,
      "oman": 2018,
      "yn": 2019,
      "Ġrange": 2020,
      "Ġaddress": 2021,
      "Ġmakes": 2022,
      "val": 2023,
      "ĠGerm": 2024,
      "ream": 2025,
      "Ġquestion": 2026,
      "ley": 2027,
      "ĠWar": 2028,
      "aim": 2029,
      "edi": 2030,
      "Ġemploy": 2031,
      "ĠOne": 2032,
      "Ġsymptoms": 2033,
      "ĠSome": 2034,
      "NA": 2035,
      "ĠJohn": 2036,
      "ĠIm": 2037,
      "Ġbecame": 2038,
      "Ġfund": 2039,
      "ued": 2040,
      "Ġcomplex": 2041,
      "Ġsingle": 2042,
      "ready": 2043,
      "Ġvalue": 2044,
      "cul": 2045,
      "Ġtoward": 2046,
      "Ġproduction": 2047,
      "Ġmind": 2048,
      "Ġscience": 2049,
      "Ġindic": 2050,
      "Ġrecogn": 2051,
      "Ġdig": 2052,
      "...": 2053,
      "ĠEnglish": 2054,
      "Ġanalysis": 2055,
      "://": 2056,
      "Ġhouse": 2057,
      "Ġstat": 2058,
      "aching": 2059,
      "Ġbig": 2060,
      "Ġcity": 2061,
      "ae": 2062,
      "ott": 2063,
      "Ġwr": 2064,
      "Ġfield": 2065,
      "ung": 2066,
      "Ġprob": 2067,
      "15": 2068,
      "Ġ198": 2069,
      "30": 2070,
      "ĠLe": 2071,
      "ĠWorld": 2072,
      "sych": 2073,
      "Ġdeveloped": 2074,
      "ĠBy": 2075,
      "aut": 2076,
      "ites": 2077,
      "Ġactivity": 2078,
      "Ġobserv": 2079,
      "200": 2080,
      "Ġ30": 2081,
      "ird": 2082,
      "Ġgrowth": 2083,
      "16": 2084,
      "Ġrate": 2085,
      "Ġgroups": 2086,
      "Ġdeg": 2087,
      "Ġseen": 2088,
      "Ġresources": 2089,
      "iol": 2090,
      "Ġword": 2091,
      "bon": 2092,
      "Ġtraining": 2093,
      "fact": 2094,
      "Ġsure": 2095,
      "Ġsource": 2096,
      "acy": 2097,
      "Ġperformance": 2098,
      "Ġlive": 2099,
      "Ġparticip": 2100,
      "Ġalready": 2101,
      "Ġnut": 2102,
      "Ġclose": 2103,
      "icial": 2104,
      "Ġactivities": 2105,
      "osis": 2106,
      "Ġneg": 2107,
      "iation": 2108,
      "ĠGo": 2109,
      "Ġtradition": 2110,
      "Ġconcept": 2111,
      "fer": 2112,
      "Ġeither": 2113,
      "Ġreduce": 2114,
      "Ġver": 2115,
      "ands": 2116,
      "Ġwind": 2117,
      "urch": 2118,
      "Ġfall": 2119,
      "Ġbelow": 2120,
      "Ġdone": 2121,
      "ery": 2122,
      "ĠHealth": 2123,
      "ival": 2124,
      "urity": 2125,
      "Ġrather": 2126,
      "Ġ14": 2127,
      "Ġlot": 2128,
      "ule": 2129,
      "For": 2130,
      "oura": 2131,
      "Ġstory": 2132,
      "Ġinit": 2133,
      "Ġproducts": 2134,
      "mber": 2135,
      "Ġmass": 2136,
      "Ġreally": 2137,
      "Ġaccording": 2138,
      "ison": 2139,
      "ĠThat": 2140,
      "ER": 2141,
      "An": 2142,
      "idered": 2143,
      "ivity": 2144,
      "ĠIntern": 2145,
      "Ġsize": 2146,
      "ĠCar": 2147,
      "augh": 2148,
      "urb": 2149,
      "Ġsam": 2150,
      "plic": 2151,
      "esc": 2152,
      "Ġevent": 2153,
      "etimes": 2154,
      "Ġcollect": 2155,
      "roll": 2156,
      "Ġissues": 2157,
      "Ġmedical": 2158,
      "ights": 2159,
      "Ġwide": 2160,
      "Ġprotect": 2161,
      "unt": 2162,
      "overed": 2163,
      "epend": 2164,
      "Ġabs": 2165,
      "Ġexperim": 2166,
      "Ġrecomm": 2167,
      "onstr": 2168,
      "ils": 2169,
      "ĠComp": 2170,
      "Ġbuilding": 2171,
      "Ġfail": 2172,
      "rect": 2173,
      "Ġfrequ": 2174,
      "Ġsurface": 2175,
      "Ġlay": 2176,
      "ym": 2177,
      "14": 2178,
      "iam": 2179,
      "Ġeffective": 2180,
      "ĠMar": 2181,
      "rams": 2182,
      "Ġflu": 2183,
      "Ġskills": 2184,
      "Ġphot": 2185,
      "Ġbat": 2186,
      "Ġarticle": 2187,
      "Ġresearchers": 2188,
      "earch": 2189,
      "reg": 2190,
      "Ġfive": 2191,
      "17": 2192,
      "utions": 2193,
      "rict": 2194,
      "Ġdetail": 2195,
      "Ġclimate": 2196,
      "Ġconsidered": 2197,
      "Ġquestions": 2198,
      "ĠAm": 2199,
      "Ġtot": 2200,
      "Ġarch": 2201,
      "Ġsent": 2202,
      "Ġsimple": 2203,
      "Ġdrug": 2204,
      "Ġunderstanding": 2205,
      "Ġassociated": 2206,
      "Ġnational": 2207,
      "Ġ=": 2208,
      "leep": 2209,
      "Ġevidence": 2210,
      "ĠGe": 2211,
      "sh": 2212,
      "Ġwhole": 2213,
      "ĠAb": 2214,
      "chan": 2215,
      "Ġonce": 2216,
      "amin": 2217,
      "Ġtaken": 2218,
      "aging": 2219,
      "Ġsite": 2220,
      "usion": 2221,
      "ĠDr": 2222,
      "Ġsuper": 2223,
      "Ġmodels": 2224,
      "Ġred": 2225,
      "ĠSouth": 2226,
      "Ġupon": 2227,
      "Ġcut": 2228,
      "izing": 2229,
      "Ġnature": 2230,
      "Ġnetwork": 2231,
      "ĠCal": 2232,
      "ĠAss": 2233,
      "ivil": 2234,
      "13": 2235,
      "reme": 2236,
      "ĠShe": 2237,
      "Ġmeet": 2238,
      "Ġdemonstr": 2239,
      "sequ": 2240,
      "Ġstates": 2241,
      "ĠPr": 2242,
      "Ġrelated": 2243,
      "ensive": 2244,
      "ĠTr": 2245,
      "Ġglobal": 2246,
      "Ġability": 2247,
      "acks": 2248,
      "Ġmembers": 2249,
      "ĠNorth": 2250,
      "Ġann": 2251,
      "ublic": 2252,
      "Ġwhite": 2253,
      "Ġmarket": 2254,
      "Ġcreated": 2255,
      "Ġincreased": 2256,
      "ips": 2257,
      "Ġpressure": 2258,
      "Ġrequired": 2259,
      "like": 2260,
      "Ġrelationship": 2261,
      "Ġcannot": 2262,
      "Ġpractice": 2263,
      "ĠAmerica": 2264,
      "ounds": 2265,
      "Ġcondition": 2266,
      "Ġhold": 2267,
      "Ġprovides": 2268,
      "Ġsun": 2269,
      "Ġsal": 2270,
      "iction": 2271,
      "ĠNe": 2272,
      "pro": 2273,
      "Ġskin": 2274,
      "ĠStud": 2275,
      "lying": 2276,
      "Ġdoct": 2277,
      "Ġpay": 2278,
      "Ġmaint": 2279,
      "Ġfri": 2280,
      "ibr": 2281,
      "Ġengine": 2282,
      "Ġthemselves": 2283,
      "Ġrelig": 2284,
      "Ġpolitical": 2285,
      "Ġhistor": 2286,
      "ĠMay": 2287,
      "Ġtell": 2288,
      "itud": 2289,
      "Ġstress": 2290,
      "Ġcame": 2291,
      "orks": 2292,
      "Ġtar": 2293,
      "Ġmeasure": 2294,
      "Ġopportun": 2295,
      "Ġliving": 2296,
      "oph": 2297,
      "illed": 2298,
      "Ġreturn": 2299,
      "ging": 2300,
      "Ġanimals": 2301,
      "When": 2302,
      "Ġdest": 2303,
      "Ġansw": 2304,
      "ournal": 2305,
      "Ġmicro": 2306,
      "rad": 2307,
      "Ġdoc": 2308,
      "Ġassess": 2309,
      "Ġactually": 2310,
      "Ġpurp": 2311,
      "aced": 2312,
      "Ġentire": 2313,
      "pect": 2314,
      "Ġfactors": 2315,
      "ober": 2316,
      "oses": 2317,
      "Ġneeded": 2318,
      "Ġarg": 2319,
      "Ġblack": 2320,
      "ences": 2321,
      "ĠRep": 2322,
      "Ġ13": 2323,
      "Ġut": 2324,
      "olic": 2325,
      "Ġpriv": 2326,
      "Ġhtt": 2327,
      "Ġvers": 2328,
      "hib": 2329,
      "Ġpath": 2330,
      "Ġfeed": 2331,
      "Ġmodern": 2332,
      "ĠMan": 2333,
      "oon": 2334,
      "Ġweek": 2335,
      "ening": 2336,
      "Ġcoll": 2337,
      "Ġmaterials": 2338,
      "AS": 2339,
      "Ġadult": 2340,
      "enn": 2341,
      "Ġspe": 2342,
      "org": 2343,
      "Ġquick": 2344,
      "Ġeconomic": 2345,
      "Ġhealthy": 2346,
      "mb": 2347,
      "Ġweight": 2348,
      "Ġinteract": 2349,
      "âĢ¦": 2350,
      "Ġpublished": 2351,
      "Ġsoft": 2352,
      "Ġidea": 2353,
      "Ġstudent": 2354,
      "Ġparts": 2355,
      "Ġimage": 2356,
      "Ġconduct": 2357,
      "Ġavoid": 2358,
      "Ġthought": 2359,
      "Ġessential": 2360,
      "Ġprote": 2361,
      "Ġport": 2362,
      "ĠAust": 2363,
      "Ġfamil": 2364,
      "Ġmanagement": 2365,
      "Ġdeep": 2366,
      "Ġservices": 2367,
      "Ġmach": 2368,
      "Ġcomes": 2369,
      "Ġliter": 2370,
      "Ġge": 2371,
      "Ġalmost": 2372,
      "Ġexperien": 2373,
      "Ġstructure": 2374,
      "Ġ197": 2375,
      "stry": 2376,
      "Ġwriting": 2377,
      "erve": 2378,
      "Ġfat": 2379,
      "Ġdiet": 2380,
      "ĠCont": 2381,
      "aged": 2382,
      "\".": 2383,
      "Ġitself": 2384,
      "Ġprevious": 2385,
      "ising": 2386,
      "Ġpattern": 2387,
      "ĠAct": 2388,
      "Ġnecessary": 2389,
      "ump": 2390,
      "Ġrecent": 2391,
      "Ġemer": 2392,
      "artment": 2393,
      "Ġfish": 2394,
      "yl": 2395,
      "gest": 2396,
      "ush": 2397,
      "vere": 2398,
      "Ġexerc": 2399,
      "Ġreact": 2400,
      "abor": 2401,
      "Ġproduce": 2402,
      "go": 2403,
      "Ġoil": 2404,
      "Ġmor": 2405,
      "eb": 2406,
      "Ġfru": 2407,
      "nces": 2408,
      "Ġcat": 2409,
      "ĠX": 2410,
      "anced": 2411,
      "Ġdog": 2412,
      "Ġfram": 2413,
      "ened": 2414,
      "iet": 2415,
      "Ġincreasing": 2416,
      "urs": 2417,
      "Ġeval": 2418,
      "Ġonline": 2419,
      "itary": 2420,
      "ney": 2421,
      "Ġpopular": 2422,
      ".)": 2423,
      "Ġterms": 2424,
      "Ġlink": 2425,
      "onse": 2426,
      "Ġchalleng": 2427,
      "ĠGu": 2428,
      "Ġcomputer": 2429,
      "Ġmoney": 2430,
      "ai": 2431,
      "ĠYork": 2432,
      "Ġmonths": 2433,
      "ID": 2434,
      "Ġinteg": 2435,
      "Ġsepar": 2436,
      "Ġhalf": 2437,
      "ze": 2438,
      "Ch": 2439,
      "Ġrights": 2440,
      "Ġpersonal": 2441,
      "):": 2442,
      "ene": 2443,
      "Ġprinc": 2444,
      "Ġbar": 2445,
      "Ġgas": 2446,
      "uel": 2447,
      "ĠEarth": 2448,
      "Ġsoil": 2449,
      "emic": 2450,
      "Ġfr": 2451,
      "astic": 2452,
      "Ġshows": 2453,
      "Ġyet": 2454,
      "het": 2455,
      "Ġmedic": 2456,
      "bo": 2457,
      "ume": 2458,
      "irm": 2459,
      "Ġcontent": 2460,
      "ply": 2461,
      "Ġ100": 2462,
      "Ġarr": 2463,
      "To": 2464,
      "ĠState": 2465,
      "Ġaction": 2466,
      "Ġparents": 2467,
      "Ġregion": 2468,
      "ĠDep": 2469,
      "ections": 2470,
      "ĠWhile": 2471,
      "Ġjob": 2472,
      "Ġvide": 2473,
      "ns": 2474,
      "Ġbehavior": 2475,
      "ores": 2476,
      "Ġrepl": 2477,
      "Ġindividuals": 2478,
      "Ġbegan": 2479,
      "Ġever": 2480,
      "aches": 2481,
      "Ġtook": 2482,
      "itation": 2483,
      "oll": 2484,
      "pid": 2485,
      "ĠCo": 2486,
      "ĠDo": 2487,
      "ript": 2488,
      "ĠHist": 2489,
      "Ġregard": 2490,
      "Ġgreen": 2491,
      "hold": 2492,
      "ĠHis": 2493,
      "eds": 2494,
      "Ġtarget": 2495,
      "empt": 2496,
      "Ġmechan": 2497,
      "ma": 2498,
      "inter": 2499,
      "Al": 2500,
      "iddle": 2501,
      "Ġtotal": 2502,
      "ulations": 2503,
      "AR": 2504,
      "Ġchemical": 2505,
      "Ġsat": 2506,
      "Ġthroughout": 2507,
      "icles": 2508,
      "Ġstop": 2509,
      "utes": 2510,
      "verse": 2511,
      "yle": 2512,
      "Ġreading": 2513,
      "ches": 2514,
      "Ġcop": 2515,
      "Ġshown": 2516,
      "erous": 2517,
      "Ġrul": 2518,
      "Ġtaking": 2519,
      "ese": 2520,
      "igure": 2521,
      "Ġclaim": 2522,
      "my": 2523,
      "Ġdat": 2524,
      "ES": 2525,
      "Ġprec": 2526,
      "Ġsociety": 2527,
      "Ġfarm": 2528,
      "ccording": 2529,
      "Ġdesigned": 2530,
      "Ġdiagn": 2531,
      "Ġsense": 2532,
      "Ġservice": 2533,
      "Ġbuilt": 2534,
      "Ġposition": 2535,
      "Ġtherap": 2536,
      "istics": 2537,
      "Wh": 2538,
      "Ġbur": 2539,
      "Ġfire": 2540,
      "rior": 2541,
      "inary": 2542,
      "Ġ50": 2543,
      "ĠAfter": 2544,
      "lex": 2545,
      "Ġindustry": 2546,
      "Ġconc": 2547,
      "Ġclean": 2548,
      "rast": 2549,
      "Ġanc": 2550,
      "Ġstandard": 2551,
      "Ġlonger": 2552,
      "ĠBritish": 2553,
      "Ġcompany": 2554,
      "reng": 2555,
      "apan": 2556,
      "ura": 2557,
      "fully": 2558,
      "Ġtemperature": 2559,
      "aff": 2560,
      "Ġ196": 2561,
      "Ġdeb": 2562,
      "AT": 2563,
      "Ġsix": 2564,
      "order": 2565,
      "Ġregular": 2566,
      "abit": 2567,
      "ĠJew": 2568,
      "estern": 2569,
      "Ġla": 2570,
      "Ġcaused": 2571,
      "--": 2572,
      "uck": 2573,
      "Ġsleep": 2574,
      "Ġprovided": 2575,
      "Ġbenefits": 2576,
      "vey": 2577,
      "Ġaverage": 2578,
      "ribution": 2579,
      "Ã©": 2580,
      "ctions": 2581,
      "You": 2582,
      "Ġalg": 2583,
      "Ġpositive": 2584,
      "Ġrev": 2585,
      "Ġenvironmental": 2586,
      "Ġimplement": 2587,
      "lor": 2588,
      "lt": 2589,
      "Ġheav": 2590,
      "Ġmeaning": 2591,
      "Ġidentify": 2592,
      "light": 2593,
      "rown": 2594,
      "Ġinj": 2595,
      "Ġhours": 2596,
      "Ġcauses": 2597,
      "icien": 2598,
      "Ġestim": 2599,
      "Ġtalk": 2600,
      "Ġtravel": 2601,
      "Ġheat": 2602,
      "Ġcolor": 2603,
      "Ġbreak": 2604,
      "Ġ25": 2605,
      "Ġmatter": 2606,
      "Ġsurv": 2607,
      "wh": 2608,
      "eration": 2609,
      "Ġcheck": 2610,
      "Ġschools": 2611,
      "Ġ11": 2612,
      "hood": 2613,
      "Ġemb": 2614,
      "Ġcontact": 2615,
      "istance": 2616,
      "ropri": 2617,
      "Ġeasy": 2618,
      "Ġcontain": 2619,
      "Ġetc": 2620,
      "ĠCanad": 2621,
      "Ġspread": 2622,
      "ĠPe": 2623,
      "osition": 2624,
      "aily": 2625,
      "Ġrelative": 2626,
      "minist": 2627,
      "ĠNo": 2628,
      "Ġreview": 2629,
      "ĠPar": 2630,
      "mon": 2631,
      "Ġlat": 2632,
      "ĠEm": 2633,
      "Ġlives": 2634,
      "Ġtrue": 2635,
      "ows": 2636,
      "Ġissue": 2637,
      "Ġattention": 2638,
      "Ġce": 2639,
      "Ġsafe": 2640,
      "Ġste": 2641,
      "know": 2642,
      "Ġincludes": 2643,
      "Ġsex": 2644,
      "ĠResearch": 2645,
      "Ġoriginal": 2646,
      "Ġsubst": 2647,
      "Ġvariety": 2648,
      "Ġthing": 2649,
      "Ġcompon": 2650,
      "aling": 2651,
      "ricult": 2652,
      "Ġ|": 2653,
      "Ġbring": 2654,
      "ĠSu": 2655,
      "Ġaffect": 2656,
      "Ġuses": 2657,
      "asc": 2658,
      "Ġaccept": 2659,
      "Ġresponse": 2660,
      "dom": 2661,
      "Ġmultiple": 2662,
      "ength": 2663,
      "Ġface": 2664,
      "aries": 2665,
      "ronic": 2666,
      "Ġconsist": 2667,
      "aving": 2668,
      "ĠSchool": 2669,
      "Ġwild": 2670,
      "ĠCO": 2671,
      "ĠOur": 2672,
      "ched": 2673,
      "Ġcompet": 2674,
      "ĠÂ": 2675,
      "ufact": 2676,
      "Ġbacter": 2677,
      "imately": 2678,
      "Ġrespect": 2679,
      "Ġlif": 2680,
      "ster": 2681,
      "Ġled": 2682,
      "atives": 2683,
      "Ġviol": 2684,
      "Ġlog": 2685,
      "Ġappl": 2686,
      "ĠII": 2687,
      "rought": 2688,
      "Ġ194": 2689,
      "rie": 2690,
      "ister": 2691,
      "amed": 2692,
      "Ġfem": 2693,
      "ĠIndia": 2694,
      "ederal": 2695,
      "Ġgreater": 2696,
      "lands": 2697,
      "ades": 2698,
      "gar": 2699,
      "ext": 2700,
      "Ġmusic": 2701,
      "Ġevents": 2702,
      "Ġcarbon": 2703,
      "Ġnormal": 2704,
      "arily": 2705,
      "ners": 2706,
      "Ġslow": 2707,
      "Ġexc": 2708,
      "Ġmovement": 2709,
      "Ġsources": 2710,
      "Ġprograms": 2711,
      "Ġstreng": 2712,
      "Ġhelps": 2713,
      "Ġlack": 2714,
      "Ġsimply": 2715,
      "Ġearth": 2716,
      "ĠJapan": 2717,
      "Ġthreat": 2718,
      "Ġbelieve": 2719,
      "ĠApp": 2720,
      "Ġparticularly": 2721,
      "Ġreported": 2722,
      "itor": 2723,
      "ĠSec": 2724,
      "Ġorigin": 2725,
      "ties": 2726,
      "Ġpoll": 2727,
      "ĠInstit": 2728,
      "Ġsometimes": 2729,
      "Ġinvestig": 2730,
      "abet": 2731,
      "Ġremov": 2732,
      "Ġpsych": 2733,
      "Ġeat": 2734,
      "ari": 2735,
      "Ġlove": 2736,
      "Ġminim": 2737,
      "Ġcompared": 2738,
      "Ġfeatures": 2739,
      "ender": 2740,
      "rim": 2741,
      "Ġbal": 2742,
      "Ġwritten": 2743,
      "Ġcompan": 2744,
      "Ġquant": 2745,
      "ror": 2746,
      "Ġscientists": 2747,
      "Ġinvolved": 2748,
      "Ġselect": 2749,
      "Ġculture": 2750,
      "But": 2751,
      "Ġencoura": 2752,
      "orith": 2753,
      "Ġdamage": 2754,
      "elling": 2755,
      "Ġemot": 2756,
      "IS": 2757,
      "ming": 2758,
      "rench": 2759,
      "Ġdoing": 2760,
      "Ġcust": 2761,
      "Ġensure": 2762,
      "Ġoptim": 2763,
      "new": 2764,
      "Ġattack": 2765,
      "Ġi": 2766,
      "Ġachieve": 2767,
      "ĠKing": 2768,
      "Ġpoor": 2769,
      "ĠQu": 2770,
      "duc": 2771,
      "ĠMore": 2772,
      "ises": 2773,
      "Ġcapt": 2774,
      "Ġoutside": 2775,
      "iciency": 2776,
      "iques": 2777,
      "ĠPer": 2778,
      "Ġdeveloping": 2779,
      "ĠInt": 2780,
      "Ġtax": 2781,
      "Ġcorrect": 2782,
      "Ġfoods": 2783,
      "Ġanaly": 2784,
      "ucle": 2785,
      "Ġindepend": 2786,
      "Ġforms": 2787,
      "Ġelectric": 2788,
      "Ġrob": 2789,
      "rand": 2790,
      "Ġbasic": 2791,
      "ĠMe": 2792,
      "ĠPres": 2793,
      "Ġextreme": 2794,
      "oor": 2795,
      "Ġpolicy": 2796,
      "Ġcamp": 2797,
      "Ġgrowing": 2798,
      "Ġgenerally": 2799,
      "idge": 2800,
      "set": 2801,
      "Ġsafety": 2802,
      "Ġcoun": 2803,
      "Ġrefer": 2804,
      "Ġproduced": 2805,
      "25": 2806,
      "Ġseries": 2807,
      "uge": 2808,
      "ĠMin": 2809,
      "Ġattempt": 2810,
      "cies": 2811,
      "ĠScience": 2812,
      "IN": 2813,
      "Ġpict": 2814,
      "ĠRec": 2815,
      "ension": 2816,
      "osing": 2817,
      "ĠWill": 2818,
      "Ġallows": 2819,
      "Ġvirus": 2820,
      "Ġunc": 2821,
      "Ġspeed": 2822,
      "Ġtheory": 2823,
      "ĠPre": 2824,
      "ĠAustral": 2825,
      "isions": 2826,
      "Ġimages": 2827,
      "Ġobt": 2828,
      "Ġharm": 2829,
      "Ġthus": 2830,
      "Ġexpress": 2831,
      "Ġdispl": 2832,
      "Ġ--": 2833,
      "Ġpage": 2834,
      "Ġshare": 2835,
      "Ġforce": 2836,
      "Ġple": 2837,
      "Ġdefin": 2838,
      "umb": 2839,
      "Ġwebs": 2840,
      "Ġsust": 2841,
      "ervation": 2842,
      "ems": 2843,
      "Ġmagn": 2844,
      "ops": 2845,
      "ided": 2846,
      "Ġsqu": 2847,
      "ached": 2848,
      "Ġcross": 2849,
      "Ġlate": 2850,
      "ĠMany": 2851,
      "osure": 2852,
      "oles": 2853,
      "Ġserious": 2854,
      "Ġpatient": 2855,
      "Ġnumbers": 2856,
      "issions": 2857,
      "ief": 2858,
      "ĠEd": 2859,
      "room": 2860,
      "Ġdraw": 2861,
      "Ġtraditional": 2862,
      "Ġmess": 2863,
      "ground": 2864,
      "Ġfeet": 2865,
      "Ġir": 2866,
      "Ġteachers": 2867,
      "Ġox": 2868,
      "ography": 2869,
      "Ġful": 2870,
      "omet": 2871,
      "Ġap": 2872,
      "Ġincluded": 2873,
      "ana": 2874,
      "Ġmanufact": 2875,
      "Ġaware": 2876,
      "Ġalgorith": 2877,
      "fect": 2878,
      "ads": 2879,
      "raft": 2880,
      "Ġideas": 2881,
      "Ġmedia": 2882,
      "rated": 2883,
      "Ġanimal": 2884,
      "Ġtakes": 2885,
      "Ġ24": 2886,
      "Ġvacc": 2887,
      "Ġvisit": 2888,
      "Ġtherefore": 2889,
      "Ġpoints": 2890,
      "uth": 2891,
      "Ġeasily": 2892,
      "Ġwood": 2893,
      "AN": 2894,
      "Ġhyd": 2895,
      "Ġdoesn": 2896,
      "Ġcontinue": 2897,
      "Ġdou": 2898,
      "Ġaim": 2899,
      "ĠChina": 2900,
      "overy": 2901,
      "Ġtools": 2902,
      "Ġfa": 2903,
      "Ġprobably": 2904,
      "Ġreve": 2905,
      "Ġfinanc": 2906,
      "rate": 2907,
      "Ġcover": 2908,
      "ls": 2909,
      "oly": 2910,
      "Ġgetting": 2911,
      "ĠCount": 2912,
      "Ġforest": 2913,
      "mar": 2914,
      "Ġnight": 2915,
      "Ġapplications": 2916,
      "Ġprep": 2917,
      "Ġkids": 2918,
      "Ġconcent": 2919,
      "ĠAg": 2920,
      "Ġsound": 2921,
      "Ġcritical": 2922,
      "ĠLear": 2923,
      "Ġprior": 2924,
      "Ġtree": 2925,
      "Ġprogress": 2926,
      "Ġdifference": 2927,
      "ĠHar": 2928,
      "Ġprimary": 2929,
      "Ġprint": 2930,
      "Ġcolon": 2931,
      "Ġdaily": 2932,
      "Ġveget": 2933,
      "Ġpredict": 2934,
      "Ġadapt": 2935,
      "Ġ/": 2936,
      "Ġinstead": 2937,
      "Ġappropri": 2938,
      "itude": 2939,
      "ĠJan": 2940,
      "ĠBo": 2941,
      "ecause": 2942,
      "Ġhighly": 2943,
      "vention": 2944,
      "Ġdirectly": 2945,
      "Ġinternational": 2946,
      "where": 2947,
      "ancy": 2948,
      "irit": 2949,
      "erson": 2950,
      "22": 2951,
      "Ġcommit": 2952,
      "Ġdetermine": 2953,
      "ĠPart": 2954,
      "Ġaltern": 2955,
      "Ġsomeone": 2956,
      "ĠUs": 2957,
      "ĠAug": 2958,
      "Ġearl": 2959,
      "Ġsecurity": 2960,
      "iot": 2961,
      "Ġoffer": 2962,
      "ha": 2963,
      "Ġlooking": 2964,
      "cell": 2965,
      "Ġdecre": 2966,
      "Ġadditional": 2967,
      "Ġunique": 2968,
      "Ġmother": 2969,
      "Ġscientific": 2970,
      "Ġcit": 2971,
      "Ġmental": 2972,
      "ino": 2973,
      "Ġwall": 2974,
      "Ġquite": 2975,
      "rs": 2976,
      "Ġreflect": 2977,
      "Ġadded": 2978,
      "Ġsea": 2979,
      "asons": 2980,
      "Ġdiseases": 2981,
      "ĠMost": 2982,
      "Ġcommunities": 2983,
      "Ġhumans": 2984,
      "Ġlarger": 2985,
      "Ġlimited": 2986,
      "Ġrout": 2987,
      "Ġbab": 2988,
      "Ġvideo": 2989,
      "Ġstarted": 2990,
      "Ġtechniques": 2991,
      "Ġeth": 2992,
      "Ġleaders": 2993,
      "rew": 2994,
      "ĠJu": 2995,
      "na": 2996,
      "Ġdiv": 2997,
      "Ġsolution": 2998,
      "hel": 2999,
      "ying": 3000,
      "ift": 3001,
      "vant": 3002,
      "haps": 3003,
      "Ġago": 3004,
      "Ġsil": 3005,
      "uary": 3006,
      "Ġ,": 3007,
      "Ġtend": 3008,
      "inks": 3009,
      "Ġinstit": 3010,
      "Ġfav": 3011,
      "erg": 3012,
      "Ġestablished": 3013,
      "Ġproposed": 3014,
      "Ġextra": 3015,
      "iers": 3016,
      "Ġtiss": 3017,
      "Ġdang": 3018,
      "Ġtown": 3019,
      "Ġwarm": 3020,
      "oes": 3021,
      "ĠCons": 3022,
      "Ġthous": 3023,
      "ĠEuropean": 3024,
      "Ġvit": 3025,
      "Ġanswer": 3026,
      "Ġinside": 3027,
      "Ġcivil": 3028,
      "Ġsearch": 3029,
      "Ġ40": 3030,
      "Ġbooks": 3031,
      "anks": 3032,
      "hens": 3033,
      "Ġproced": 3034,
      "ĠCenter": 3035,
      "Ġaud": 3036,
      "ĠYour": 3037,
      "Ġcru": 3038,
      "ington": 3039,
      "Ġquickly": 3040,
      "Ġclin": 3041,
      "Ġdocument": 3042,
      "ulate": 3043,
      "term": 3044,
      "Ġtrees": 3045,
      "Ġvalues": 3046,
      "Ġcompanies": 3047,
      "ceed": 3048,
      "Ġspeak": 3049,
      "Ġnegative": 3050,
      "Ġinterp": 3051,
      "Ġsold": 3052,
      "bor": 3053,
      "Ġthird": 3054,
      "ĠGl": 3055,
      "Ġstrateg": 3056,
      "Ġnation": 3057,
      "nov": 3058,
      "Ġapplication": 3059,
      "Ġtowards": 3060,
      "Ġheld": 3061,
      "Ġsou": 3062,
      "lection": 3063,
      "ĠAc": 3064,
      "Ġbroad": 3065,
      "ĠEduc": 3066,
      "Ġeye": 3067,
      "Ġleading": 3068,
      "Ġactive": 3069,
      "iforn": 3070,
      "asks": 3071,
      "ĠIndian": 3072,
      "son": 3073,
      "Ġimmedi": 3074,
      "cil": 3075,
      "aly": 3076,
      "isms": 3077,
      "Ġcentral": 3078,
      "Ġsoftware": 3079,
      "ĠEl": 3080,
      "Ġuseful": 3081,
      "ĠFrench": 3082,
      "Ġautom": 3083,
      "ellow": 3084,
      "lation": 3085,
      "Ġmilitary": 3086,
      "Ġfront": 3087,
      "Ġbit": 3088,
      "Ġinfection": 3089,
      "Ġsevere": 3090,
      "ille": 3091,
      "su": 3092,
      "ĠArt": 3093,
      "ĠMod": 3094,
      "olar": 3095,
      "Ġtri": 3096,
      "pril": 3097,
      "Ġcode": 3098,
      "ĠSm": 3099,
      "Ġnovel": 3100,
      "Ġtask": 3101,
      "elt": 3102,
      "Ġalthough": 3103,
      "ius": 3104,
      "pe": 3105,
      "undred": 3106,
      "Ġbehind": 3107,
      "itect": 3108,
      "yond": 3109,
      "Ġacid": 3110,
      "Ġrequires": 3111,
      "Ġdry": 3112,
      "Ġcommunication": 3113,
      "con": 3114,
      "arr": 3115,
      "ĠReg": 3116,
      "cial": 3117,
      "ching": 3118,
      "Ġessay": 3119,
      "Ġcustom": 3120,
      "www": 3121,
      "Ġenh": 3122,
      "Ġsequ": 3123,
      "ON": 3124,
      "useum": 3125,
      "Ġindustr": 3126,
      "Ġhor": 3127,
      "ĠSch": 3128,
      "On": 3129,
      "Ġpurpose": 3130,
      "abetes": 3131,
      "Ġgard": 3132,
      "Ġhar": 3133,
      "ĠInstitute": 3134,
      "Ġur": 3135,
      "Ġblock": 3136,
      "Ġdecision": 3137,
      "den": 3138,
      "Ġwrite": 3139,
      "Ġbirth": 3140,
      "ifornia": 3141,
      "bit": 3142,
      "Ġexercise": 3143,
      "Ġgraph": 3144,
      "oming": 3145,
      "Ġsolar": 3146,
      "21": 3147,
      "izes": 3148,
      "Ġfamilies": 3149,
      "Ġcontribut": 3150,
      "Ġmemory": 3151,
      "Ġsoon": 3152,
      "Ġfoot": 3153,
      "Ġhost": 3154,
      "ields": 3155,
      "Ġdrink": 3156,
      "wise": 3157,
      "joy": 3158,
      "OR": 3159,
      "Ġwhose": 3160,
      "eff": 3161,
      "ĠAfrica": 3162,
      "ologies": 3163,
      "Ġofficial": 3164,
      "ĠTra": 3165,
      "Ġwalk": 3166,
      "Ġbad": 3167,
      "cean": 3168,
      "Ġsupply": 3169,
      "ĠWest": 3170,
      "Ġelements": 3171,
      "Ġdevices": 3172,
      "ĠOf": 3173,
      "Ġfast": 3174,
      "Ġexisting": 3175,
      "Ġlength": 3176,
      "uous": 3177,
      "Ġshall": 3178,
      "uman": 3179,
      "ĠAlthough": 3180,
      "Ġlabor": 3181,
      "Ġbase": 3182,
      "ĠJes": 3183,
      "Ġtransport": 3184,
      "Ġder": 3185,
      "gency": 3186,
      "Ġstra": 3187,
      "ĠMarch": 3188,
      "Ġinfluence": 3189,
      "Ġveh": 3190,
      "Ġones": 3191,
      "ĠDepartment": 3192,
      "thern": 3193,
      "uk": 3194,
      "IC": 3195,
      "Ġstay": 3196,
      "come": 3197,
      "Ġhot": 3198,
      "Ġprotein": 3199,
      "ĠNot": 3200,
      "ĠOct": 3201,
      "Ġpack": 3202,
      "Ġrates": 3203,
      "Ġexact": 3204,
      "right": 3205,
      "ĠGerman": 3206,
      "pper": 3207,
      "inct": 3208,
      "itis": 3209,
      "Ġdoctor": 3210,
      "Ġbeginning": 3211,
      "Ġteaching": 3212,
      "Ġvia": 3213,
      "Ġcard": 3214,
      "rig": 3215,
      "Ġsituation": 3216,
      "Ġapprox": 3217,
      "Ġcapac": 3218,
      "ulated": 3219,
      "Ġwent": 3220,
      "uries": 3221,
      "ĠRuss": 3222,
      "Ġprocesses": 3223,
      "Ġefficient": 3224,
      "Ġcontains": 3225,
      "Ġ2010": 3226,
      "Ġseems": 3227,
      "Ġimportance": 3228,
      "Ġdecl": 3229,
      "ĠChild": 3230,
      "ĠFirst": 3231,
      "axim": 3232,
      "Ġadop": 3233,
      "omb": 3234,
      "ixed": 3235,
      "Ġvisual": 3236,
      "Ġ2012": 3237,
      "âĢ¢": 3238,
      "equ": 3239,
      "amic": 3240,
      "Ġgoal": 3241,
      "hern": 3242,
      "ilos": 3243,
      "Ġevalu": 3244,
      "Ġhands": 3245,
      "izations": 3246,
      "ĠCalifornia": 3247,
      "Ġcosts": 3248,
      "ription": 3249,
      "Ġcapital": 3250,
      "ĠOther": 3251,
      "Ġmom": 3252,
      "Ġang": 3253,
      "Ġfinancial": 3254,
      "iber": 3255,
      "ĠHere": 3256,
      "ĠAfrican": 3257,
      "Ġdemand": 3258,
      "ding": 3259,
      "time": 3260,
      "att": 3261,
      "Ġworkers": 3262,
      "rition": 3263,
      "ĠCor": 3264,
      "AC": 3265,
      "40": 3266,
      "Ġhabit": 3267,
      "Ġmount": 3268,
      "Ġnews": 3269,
      "Ġsection": 3270,
      "uff": 3271,
      "ĠChar": 3272,
      "Ġthinking": 3273,
      "mission": 3274,
      "Ġfight": 3275,
      "Ġremains": 3276,
      "____": 3277,
      "ĠJune": 3278,
      "Ġlost": 3279,
      "imin": 3280,
      "Ġminutes": 3281,
      "Ġadvant": 3282,
      "Ġuser": 3283,
      "Ġmill": 3284,
      "Ġhttp": 3285,
      "rogen": 3286,
      "ĠSept": 3287,
      "Ġgame": 3288,
      "ellig": 3289,
      "ĠInternational": 3290,
      "Ġord": 3291,
      "oud": 3292,
      "Ġprivate": 3293,
      "Ġreceived": 3294,
      "ĠTw": 3295,
      "Ġtypically": 3296,
      "Ġestablish": 3297,
      "Ġsymb": 3298,
      "One": 3299,
      "ĠMon": 3300,
      "Ġancient": 3301,
      "ĠRet": 3302,
      "back": 3303,
      "hest": 3304,
      "rote": 3305,
      "Ġdescribed": 3306,
      "ĠGree": 3307,
      "gn": 3308,
      "ĠHer": 3309,
      "Ġtesting": 3310,
      "Ġnucle": 3311,
      "Ġexpect": 3312,
      "Ġdark": 3313,
      "ĠHistory": 3314,
      "fort": 3315,
      "Ġjud": 3316,
      "So": 3317,
      "istry": 3318,
      "Ġhundred": 3319,
      "Ġstru": 3320,
      "Ġprotection": 3321,
      "ĠAnt": 3322,
      "Ġbehavi": 3323,
      "Ġjo": 3324,
      "He": 3325,
      "Ġfit": 3326,
      "Ġexamples": 3327,
      "Ġlargest": 3328,
      "Ġult": 3329,
      "Ġadj": 3330,
      "used": 3331,
      "Ġstri": 3332,
      "ĠAugust": 3333,
      "ĠKe": 3334,
      "Ġexcept": 3335,
      "ework": 3336,
      "Ġmachine": 3337,
      "ran": 3338,
      "Ġsustain": 3339,
      "23": 3340,
      "ĠSw": 3341,
      "ĠFrom": 3342,
      "Ġwaste": 3343,
      "Ġdepend": 3344,
      "ĠTrans": 3345,
      "Ġx": 3346,
      "Ġnearly": 3347,
      "Ġbecomes": 3348,
      "Ġcarry": 3349,
      "Ġcontext": 3350,
      "Ġrapid": 3351,
      "âĢĿ.": 3352,
      "Ġ2011": 3353,
      "Ġmole": 3354,
      "Ġtests": 3355,
      "60": 3356,
      "Ġproperty": 3357,
      "Ġusers": 3358,
      "Ġdisp": 3359,
      "Ġbrought": 3360,
      "Ġadminist": 3361,
      "Ġenjoy": 3362,
      "Ġadults": 3363,
      "ipl": 3364,
      "lim": 3365,
      "ĠMus": 3366,
      "Ġcred": 3367,
      "coh": 3368,
      "vest": 3369,
      "Ġasp": 3370,
      "And": 3371,
      "ipment": 3372,
      "Ġobjects": 3373,
      "Ġelse": 3374,
      "Ġep": 3375,
      "orthern": 3376,
      "80": 3377,
      "Ġappropriate": 3378,
      "Ġweeks": 3379,
      "Ġsn": 3380,
      "Ġlines": 3381,
      "Ġreach": 3382,
      "Ġwa": 3383,
      "Ġagricult": 3384,
      "Ġfra": 3385,
      "orders": 3386,
      "ĠApril": 3387,
      "Ġagree": 3388,
      "Ġgot": 3389,
      "Ġcontroll": 3390,
      "enge": 3391,
      "Ġleaves": 3392,
      "ĠRiver": 3393,
      "Ġremain": 3394,
      "cks": 3395,
      "Ġdyn": 3396,
      "Ġtable": 3397,
      "estic": 3398,
      "iter": 3399,
      "Ġcam": 3400,
      "Ġbacteria": 3401,
      "Ġbasis": 3402,
      "Ġnorth": 3403,
      "iles": 3404,
      "IV": 3405,
      "itable": 3406,
      "ĠServ": 3407,
      "Ġrare": 3408,
      "head": 3409,
      "ibrary": 3410,
      "ype": 3411,
      "EN": 3412,
      "Ġplaces": 3413,
      "Ġefforts": 3414,
      "Ġprojects": 3415,
      "Ġconver": 3416,
      "24": 3417,
      "Ġ21": 3418,
      "Ġlocated": 3419,
      "Ġrespond": 3420,
      "Ġdeal": 3421,
      "odes": 3422,
      "odies": 3423,
      "Ġwebsite": 3424,
      "see": 3425,
      "ĠBar": 3426,
      "year": 3427,
      "work": 3428,
      "idents": 3429,
      "ĠJuly": 3430,
      "Ġrecently": 3431,
      "Ġconstruction": 3432,
      "Ġseason": 3433,
      "Ġtrade": 3434,
      "Ġmention": 3435,
      "Ġstage": 3436,
      "sect": 3437,
      "ĠJesus": 3438,
      "Ġsurround": 3439,
      "Ġsites": 3440,
      "'re": 3441,
      "Ġ2013": 3442,
      "off": 3443,
      "Ġcreating": 3444,
      "Ġfinal": 3445,
      "Ġcalcul": 3446,
      "ĠDav": 3447,
      "ĠMy": 3448,
      "Ġgives": 3449,
      "uments": 3450,
      "inese": 3451,
      "rael": 3452,
      "ĠSystem": 3453,
      "ED": 3454,
      "Ġcrop": 3455,
      "Ġcou": 3456,
      "Ġtold": 3457,
      "Ġund": 3458,
      "Ġinform": 3459,
      "king": 3460,
      "Ġeyes": 3461,
      "Ġexpected": 3462,
      "Ġborn": 3463,
      "iece": 3464,
      "eech": 3465,
      "Ġsett": 3466,
      "Ġproviding": 3467,
      "ĠWash": 3468,
      "ĠEngland": 3469,
      "Ġdigital": 3470,
      "Ġchallenges": 3471,
      "Ġinstall": 3472,
      "Ġcultural": 3473,
      "med": 3474,
      "Ġsummer": 3475,
      "Ġfriends": 3476,
      "Ġegg": 3477,
      "Ġsouth": 3478,
      "Ġteacher": 3479,
      "ĠAmericans": 3480,
      "Ġreligious": 3481,
      "Ġpoly": 3482,
      "Ġcompar": 3483,
      "Ġbeaut": 3484,
      "Ġjoint": 3485,
      "Ġvict": 3486,
      "Ġcool": 3487,
      "ĠPress": 3488,
      "Ġrecommend": 3489,
      "ĠAssoci": 3490,
      "eal": 3491,
      "resh": 3492,
      "oke": 3493,
      "Ġapplied": 3494,
      "ĠMc": 3495,
      "199": 3496,
      "Ġhyp": 3497,
      "aid": 3498,
      "Ġproperties": 3499,
      "Ġscale": 3500,
      "Ġfather": 3501,
      "life": 3502,
      "Ġdevice": 3503,
      "ogen": 3504,
      "Ġtasks": 3505,
      "cles": 3506,
      "Ġdead": 3507,
      "Ġguid": 3508,
      "atur": 3509,
      "co": 3510,
      "Ġcold": 3511,
      "ira": 3512,
      "arian": 3513,
      "ford": 3514,
      "Ġcenter": 3515,
      "ĠProg": 3516,
      "ondon": 3517,
      "Ġbenefit": 3518,
      "ribute": 3519,
      "ĠChristian": 3520,
      "Ġbeyond": 3521,
      "more": 3522,
      "Ġbound": 3523,
      "Ġeating": 3524,
      "Ġweb": 3525,
      "Ġhimself": 3526,
      "ĠSim": 3527,
      "Ġbreat": 3528,
      "Ġteeth": 3529,
      "aul": 3530,
      "Ġoverall": 3531,
      "ĠWilliam": 3532,
      "Ġdied": 3533,
      "Ġcitiz": 3534,
      "Ġcommunic": 3535,
      "Ġroom": 3536,
      "illing": 3537,
      "Ġanti": 3538,
      "uro": 3539,
      "ĠCanada": 3540,
      "ĠDay": 3541,
      "Ġsaw": 3542,
      "Ġpractices": 3543,
      "Ġbott": 3544,
      "Ġarchitect": 3545,
      "Ġcateg": 3546,
      "Ġpan": 3547,
      "Ġpen": 3548,
      "Ġfuel": 3549,
      "Ġsugar": 3550,
      "ensity": 3551,
      "cember": 3552,
      "Ġinsp": 3553,
      "water": 3554,
      "airs": 3555,
      "Ġaffected": 3556,
      "Ġcommand": 3557,
      "load": 3558,
      "Ġfollowed": 3559,
      "Ġhope": 3560,
      "Ġreasons": 3561,
      "ĠPresident": 3562,
      "Ġimag": 3563,
      "Ġconsequ": 3564,
      "Ġgradu": 3565,
      "Ġmiles": 3566,
      "Ġsignificantly": 3567,
      "ham": 3568,
      "Ġtherapy": 3569,
      "Ġfunctions": 3570,
      "IT": 3571,
      "Ġking": 3572,
      "Ġresponsible": 3573,
      "ĠFin": 3574,
      "Ġcele": 3575,
      "Ġshape": 3576,
      "Ġtrack": 3577,
      "ocr": 3578,
      "Ġfeature": 3579,
      "Ġson": 3580,
      "iable": 3581,
      "Ġsmaller": 3582,
      "ony": 3583,
      "iar": 3584,
      "Ġmiddle": 3585,
      "Ġdegree": 3586,
      "Ġexec": 3587,
      "Ġcoast": 3588,
      "Ġanything": 3589,
      "cohol": 3590,
      "à¤": 3591,
      "Ġconflic": 3592,
      "Ġmeasures": 3593,
      "ĠIS": 3594,
      "Ġ:": 3595,
      "Ġreceive": 3596,
      "apter": 3597,
      "Ġconstant": 3598,
      "Ġeverything": 3599,
      "Ġlegal": 3600,
      "ĠChurch": 3601,
      "sec": 3602,
      "Ġequipment": 3603,
      "Ġhous": 3604,
      "Ġforces": 3605,
      "iples": 3606,
      "Ġlimit": 3607,
      "ĠTechn": 3608,
      "ama": 3609,
      "Ġscreen": 3610,
      "aught": 3611,
      "Ġstrength": 3612,
      "Ġmaxim": 3613,
      "ĠPark": 3614,
      "Ġnothing": 3615,
      "ula": 3616,
      "Ġdifferences": 3617,
      "ev": 3618,
      "Ġ2014": 3619,
      "Ġlocation": 3620,
      "Ġprofessional": 3621,
      "Ġchoose": 3622,
      "ocks": 3623,
      "Ġten": 3624,
      "Ġolder": 3625,
      "ector": 3626,
      "Ġbul": 3627,
      "Ġconstruct": 3628,
      "Ġincor": 3629,
      "ĠThen": 3630,
      "At": 3631,
      "Ġexposure": 3632,
      "Ġmob": 3633,
      "ĠCong": 3634,
      "bur": 3635,
      "Ġice": 3636,
      "Ġmid": 3637,
      "Ġ2009": 3638,
      "lamm": 3639,
      "rees": 3640,
      "ĠGovern": 3641,
      "Ġcra": 3642,
      "mosp": 3643,
      "ovember": 3644,
      "ste": 3645,
      "ĠSeptember": 3646,
      "resp": 3647,
      "Ġcurrently": 3648,
      "These": 3649,
      "Ġdate": 3650,
      "Ġopportunity": 3651,
      "ingu": 3652,
      "Ġcommonly": 3653,
      "ico": 3654,
      "Ġweather": 3655,
      "Ġemp": 3656,
      "Ġreduced": 3657,
      "ĠAccording": 3658,
      "Ġtrial": 3659,
      "Ġrules": 3660,
      "Ġgeneration": 3661,
      "Ġyourself": 3662,
      "Ġrock": 3663,
      "ĠEducation": 3664,
      "Ġasked": 3665,
      "Ġeconomy": 3666,
      "Ġcollection": 3667,
      "Ġvirt": 3668,
      "ought": 3669,
      "abilities": 3670,
      "ĠInc": 3671,
      "ests": 3672,
      "ĠCity": 3673,
      "Ġoccurs": 3674,
      "irection": 3675,
      "force": 3676,
      "known": 3677,
      "ĠGreat": 3678,
      "Ġfear": 3679,
      "Ġutil": 3680,
      "ĠJanuary": 3681,
      "Ġpatterns": 3682,
      "Ġsuccessful": 3683,
      "Ġnamed": 3684,
      "Ġconstit": 3685,
      "Ġspirit": 3686,
      "Ġaccur": 3687,
      "oration": 3688,
      "Ġsteps": 3689,
      "Ġrise": 3690,
      "Ġalone": 3691,
      "Ġcompletely": 3692,
      "Ġtit": 3693,
      "ĠOctober": 3694,
      "Ġorganization": 3695,
      "ĠChinese": 3696,
      "ocol": 3697,
      "ĠIsrael": 3698,
      "Ġacqu": 3699,
      "Ġlaws": 3700,
      "Ġrain": 3701,
      "Ġdiabetes": 3702,
      "Ġneigh": 3703,
      "lin": 3704,
      "ĠCommun": 3705,
      "ĠEven": 3706,
      "rehens": 3707,
      "gment": 3708,
      "Ġeffort": 3709,
      "ĠJournal": 3710,
      "Ġinstru": 3711,
      "PA": 3712,
      "Ġfederal": 3713,
      "ospital": 3714,
      "ifically": 3715,
      "ĠWashington": 3716,
      "tery": 3717,
      "Ġ2008": 3718,
      "ĠFeb": 3719,
      "Ġfully": 3720,
      "Ġpregn": 3721,
      "Ġ2015": 3722,
      "book": 3723,
      "ĠPol": 3724,
      "Ġstandards": 3725,
      "anish": 3726,
      "Ex": 3727,
      "ĠHigh": 3728,
      "Ġfair": 3729,
      "Ġearlier": 3730,
      "Ġtransfer": 3731,
      "Ġpowerful": 3732,
      "Ġeveryone": 3733,
      "Ġtrying": 3734,
      "Ġswe": 3735,
      "hemat": 3736,
      "Ġwrote": 3737,
      "Ġmaintain": 3738,
      "Ġbeg": 3739,
      "Ġwoman": 3740,
      "antic": 3741,
      "Ġwon": 3742,
      "Ġinteresting": 3743,
      "Ġidentified": 3744,
      "ĠRed": 3745,
      "Ġ23": 3746,
      "Ġdrugs": 3747,
      "Ġmis": 3748,
      "xi": 3749,
      "ĠDis": 3750,
      "Ġrich": 3751,
      "ĠBi": 3752,
      "Ġdistribution": 3753,
      "Ġpresence": 3754,
      "Ġformer": 3755,
      "Ġrat": 3756,
      "Ġcapacity": 3757,
      "Ġpet": 3758,
      "wide": 3759,
      "Ġden": 3760,
      "Ġfactor": 3761,
      "Ġpurch": 3762,
      "ĠSur": 3763,
      "Ġ60": 3764,
      "Ġframework": 3765,
      "men": 3766,
      "rical": 3767,
      "Ġhistorical": 3768,
      "ero": 3769,
      "Ġgoes": 3770,
      "ĠInst": 3771,
      "itch": 3772,
      "Ġperfect": 3773,
      "urban": 3774,
      ");": 3775,
      "Ġball": 3776,
      "mitted": 3777,
      "Ġallowed": 3778,
      "Ġwinter": 3779,
      "bre": 3780,
      "Ġsem": 3781,
      "Ġgenetic": 3782,
      "Ġbirds": 3783,
      "ĠArch": 3784,
      "Ġroad": 3785,
      "Ġrule": 3786,
      "Ġbillion": 3787,
      "ĠLondon": 3788,
      "can": 3789,
      "Ġfile": 3790,
      "ica": 3791,
      "Ġleave": 3792,
      "Ġplaced": 3793,
      "rick": 3794,
      "Ġillust": 3795,
      "Ġcommerc": 3796,
      "Ġisn": 3797,
      "ĠCounty": 3798,
      "Ġmiss": 3799,
      "ĠDevelop": 3800,
      "ords": 3801,
      "Ġoccup": 3802,
      "Ġcomponents": 3803,
      "related": 3804,
      "imens": 3805,
      "Ġversion": 3806,
      "Ġassign": 3807,
      "ibly": 3808,
      "27": 3809,
      "While": 3810,
      "Ġshowed": 3811,
      "Ġdistance": 3812,
      "ĠVir": 3813,
      "Ġfindings": 3814,
      "bl": 3815,
      "oe": 3816,
      "Ġsch": 3817,
      "Ġdiscovered": 3818,
      "Ġstrategies": 3819,
      "iest": 3820,
      "ĠDuring": 3821,
      "ĠEc": 3822,
      "Ġinput": 3823,
      "With": 3824,
      "aled": 3825,
      "Ġmajority": 3826,
      "edia": 3827,
      "ĠMex": 3828,
      "Ġactions": 3829,
      "ĠEast": 3830,
      "rieved": 3831,
      "oday": 3832,
      "iveness": 3833,
      "encies": 3834,
      "Ġmember": 3835,
      "Ġhon": 3836,
      "iring": 3837,
      "Ġscen": 3838,
      "ĠDNA": 3839,
      "Ġvision": 3840,
      "Ġenter": 3841,
      "Ġdisplay": 3842,
      "Ġfruit": 3843,
      "Ġassum": 3844,
      "ara": 3845,
      "Ġacad": 3846,
      "Ġeight": 3847,
      "Ġincreases": 3848,
      "Ġplanet": 3849,
      "ĠDecember": 3850,
      "Ġgold": 3851,
      "Ġdestro": 3852,
      "rec": 3853,
      "Ġtox": 3854,
      "Ġmal": 3855,
      "ĠOff": 3856,
      "Ġevolution": 3857,
      "AL": 3858,
      "reet": 3859,
      "Ġcry": 3860,
      "ĠSince": 3861,
      "ĠRead": 3862,
      "Ġimmune": 3863,
      "Ġchoice": 3864,
      "Ġcontinued": 3865,
      "ĠVal": 3866,
      "ternal": 3867,
      "Ġformed": 3868,
      "Ġstatus": 3869,
      "ĠPat": 3870,
      "Ġsitu": 3871,
      "Ġcoming": 3872,
      "Ġstrugg": 3873,
      "era": 3874,
      "tical": 3875,
      "Ġnetworks": 3876,
      "edom": 3877,
      "Ġtur": 3878,
      "phas": 3879,
      "que": 3880,
      "26": 3881,
      "Ġspect": 3882,
      "Ġbra": 3883,
      "Ġassist": 3884,
      "Ġinstance": 3885,
      "Ġpow": 3886,
      "ruary": 3887,
      "enty": 3888,
      "29": 3889,
      "Ġasse": 3890,
      "Ġsigns": 3891,
      "Ġsymbol": 3892,
      "ĠGeneral": 3893,
      "osy": 3894,
      "Ġchurch": 3895,
      "Ġmig": 3896,
      "Ġ193": 3897,
      "Ġrelatively": 3898,
      "ĠBlack": 3899,
      "rab": 3900,
      "Ġelement": 3901,
      "Ġ+": 3902,
      "Ġobserved": 3903,
      "Ġoffers": 3904,
      "ogle": 3905,
      "ament": 3906,
      "Ġmut": 3907,
      "craft": 3908,
      "ST": 3909,
      "ĠLaw": 3910,
      "ĠRoman": 3911,
      "Ġbelief": 3912,
      "ĠNovember": 3913,
      "ĠCour": 3914,
      "Ġunit": 3915,
      "ĠAut": 3916,
      "Ġplanning": 3917,
      "Ġdatas": 3918,
      "Ġweak": 3919,
      "Ġphilos": 3920,
      "Ġchallenge": 3921,
      "aters": 3922,
      "70": 3923,
      "Ġwond": 3924,
      "gery": 3925,
      "Ġteach": 3926,
      "Ġgave": 3927,
      "Ġcities": 3928,
      "Ġregions": 3929,
      "Ġstim": 3930,
      "Ġconvers": 3931,
      "Ġforward": 3932,
      "aint": 3933,
      "Ġcollabor": 3934,
      "Ġmap": 3935,
      "Ġ2016": 3936,
      "Ġtissue": 3937,
      "Ġ2007": 3938,
      "Ġmouth": 3939,
      "Ġnutri": 3940,
      "Ġcook": 3941,
      "ees": 3942,
      "Ġmoment": 3943,
      "ĠAlso": 3944,
      "Ġinnov": 3945,
      "Ġillness": 3946,
      "ĠLearning": 3947,
      "Ġpromot": 3948,
      "Ġnote": 3949,
      "Ġconsumption": 3950,
      "EC": 3951,
      "Ġstructures": 3952,
      "ĠCoun": 3953,
      "Ġexplore": 3954,
      "Ġperhaps": 3955,
      "Ġmoving": 3956,
      "28": 3957,
      "Ġgir": 3958,
      "Ġsynt": 3959,
      "Ġstyle": 3960,
      "Ġcourt": 3961,
      "ĠSpec": 3962,
      "Ġatmosp": 3963,
      "Ġchanged": 3964,
      "iate": 3965,
      "mark": 3966,
      "ously": 3967,
      "Ġprice": 3968,
      "ĠSan": 3969,
      "ĠAre": 3970,
      "Ġremember": 3971,
      "Ġantib": 3972,
      "Ġemissions": 3973,
      "Ġroot": 3974,
      "aste": 3975,
      "Ġoffic": 3976,
      "unch": 3977,
      "cious": 3978,
      "Some": 3979,
      "Ġguide": 3980,
      "inated": 3981,
      "Ġexhib": 3982,
      "AM": 3983,
      "Ġbaby": 3984,
      "Ġfemale": 3985,
      "Ġpresented": 3986,
      "Ġtou": 3987,
      "ĠNow": 3988,
      "Ġdirection": 3989,
      "Ġsolutions": 3990,
      "Ġdefined": 3991,
      "Ġworth": 3992,
      "rupt": 3993,
      "Ġdidn": 3994,
      "Ġqual": 3995,
      "Pro": 3996,
      "Ġexplain": 3997,
      "care": 3998,
      "ĠBecause": 3999,
      "Ġappears": 4000,
      "Ġconnect": 4001,
      "Ġmonit": 4002,
      "iment": 4003,
      "Ġapply": 4004,
      "Ġwid": 4005,
      "emy": 4006,
      "Ġpiece": 4007,
      "ĠWater": 4008,
      "Ġspeech": 4009,
      "Ġstories": 4010,
      "Ġopportunities": 4011,
      "Ġcontract": 4012,
      "ĠHouse": 4013,
      "ĠUK": 4014,
      "Ġrepe": 4015,
      "Ġlearned": 4016,
      "Ġhair": 4017,
      "orge": 4018,
      "Ġparam": 4019,
      "Ġcontrast": 4020,
      "By": 4021,
      "ĠProf": 4022,
      "Ġexpand": 4023,
      "Ġbalance": 4024,
      "Ġsurvey": 4025,
      "Ġ195": 4026,
      "rief": 4027,
      "Ġclinical": 4028,
      "Ġnames": 4029,
      "Ġvill": 4030,
      "Ġpeace": 4031,
      "ĠCom": 4032,
      "iences": 4033,
      "ĠSociety": 4034,
      "Ġbox": 4035,
      "amb": 4036,
      "Ġequal": 4037,
      "alt": 4038,
      "orage": 4039,
      "ĠAustralia": 4040,
      "ĠConf": 4041,
      "Ġrequirements": 4042,
      "ĠRo": 4043,
      "ĠPeople": 4044,
      "\",": 4045,
      "Ġintellig": 4046,
      "atin": 4047,
      "Ġfresh": 4048,
      "aign": 4049,
      "isation": 4050,
      "ĠJust": 4051,
      "ĠUnion": 4052,
      "Ġsample": 4053,
      "Ġeducational": 4054,
      "ession": 4055,
      "II": 4056,
      "ĠProt": 4057,
      "udd": 4058,
      "gypt": 4059,
      "Ġalcohol": 4060,
      "Ġstaff": 4061,
      "Ġgiving": 4062,
      "Ġrunning": 4063,
      "Ġreports": 4064,
      "Ġworked": 4065,
      "igen": 4066,
      "ĠGermany": 4067,
      "Ġpp": 4068,
      "part": 4069,
      "ĠBr": 4070,
      "Ġgain": 4071,
      "iful": 4072,
      "Ġ26": 4073,
      "Ġsusp": 4074,
      "ĠInter": 4075,
      "Ġstar": 4076,
      "Ġdetails": 4077,
      "house": 4078,
      "ĠFl": 4079,
      "Ġ28": 4080,
      "oice": 4081,
      "Ġhuge": 4082,
      "Ġliterature": 4083,
      "Ġresource": 4084,
      "ky": 4085,
      "Ġing": 4086,
      "ĠUse": 4087,
      "aur": 4088,
      "Ġtele": 4089,
      "Ġfine": 4090,
      "iny": 4091,
      "hors": 4092,
      "arge": 4093,
      "rome": 4094,
      "Ġriver": 4095,
      "Ġthousands": 4096,
      "Ġconducted": 4097,
      "Ġsuggests": 4098,
      "Ġperspect": 4099,
      "och": 4100,
      "Ġresistance": 4101,
      "cast": 4102,
      "Ġintroduced": 4103,
      "Ġsetting": 4104,
      "ygen": 4105,
      "Ġgarden": 4106,
      "Ġagg": 4107,
      "Ġtechnique": 4108,
      "Ġpicture": 4109,
      "Ġtechnologies": 4110,
      "che": 4111,
      "volution": 4112,
      "ĠFrance": 4113,
      "Ġinstruct": 4114,
      "Ġphen": 4115,
      "ĠJewish": 4116,
      "Ġforeign": 4117,
      "Ġabsor": 4118,
      "eding": 4119,
      "Ġattract": 4120,
      "Ġmission": 4121,
      "DA": 4122,
      "apers": 4123,
      "eters": 4124,
      "Ġitems": 4125,
      "Ġoptions": 4126,
      "SA": 4127,
      "icip": 4128,
      "ros": 4129,
      "Ġblue": 4130,
      "Ġoutput": 4131,
      "Ad": 4132,
      "Ġtopic": 4133,
      "Ġefficiency": 4134,
      "Ġextremely": 4135,
      "Ġ22": 4136,
      "Ġiron": 4137,
      "Ġcommercial": 4138,
      "Ġcarried": 4139,
      "pris": 4140,
      "Ġtransform": 4141,
      "Ġseparate": 4142,
      "ald": 4143,
      "Ġinitial": 4144,
      "ographic": 4145,
      "Ġwidely": 4146,
      "Ġsoci": 4147,
      "ĠEach": 4148,
      "Ġ27": 4149,
      "ĠRetrieved": 4150,
      "Ġwrong": 4151,
      "hetic": 4152,
      "Ġexperiences": 4153,
      "asion": 4154,
      "Ġchance": 4155,
      "omas": 4156,
      "EM": 4157,
      "Ġbelieved": 4158,
      "Ġfriend": 4159,
      "Ġrot": 4160,
      "Ġincome": 4161,
      "iding": 4162,
      "Ġvary": 4163,
      "ares": 4164,
      "Ġexperiment": 4165,
      "ĠEnvironment": 4166,
      "ĠTheir": 4167,
      "ĠThus": 4168,
      "Ġnative": 4169,
      "iance": 4170,
      "xiety": 4171,
      "Ġbreast": 4172,
      "ĠAssociation": 4173,
      "yd": 4174,
      "Ġplans": 4175,
      "uild": 4176,
      "Ġtreated": 4177,
      "Ġoffice": 4178,
      "Ġdivid": 4179,
      "Ġmulti": 4180,
      "cont": 4181,
      "ĠCur": 4182,
      "ĠOver": 4183,
      "Ġindustrial": 4184,
      "Ġmuscle": 4185,
      "Ġpassed": 4186,
      "Ġperformed": 4187,
      "Ġhom": 4188,
      "respond": 4189,
      "Ġexcess": 4190,
      "Ġresulting": 4191,
      "ĠPhil": 4192,
      "Ġdisorder": 4193,
      "âĢĿ,": 4194,
      "ken": 4195,
      "elines": 4196,
      "Ġstream": 4197,
      "Ġalternative": 4198,
      "Ġplastic": 4199,
      "ĠDec": 4200,
      "Ġhighest": 4201,
      "Ġurban": 4202,
      "ĠInternet": 4203,
      "ĠFebruary": 4204,
      "Ġapproaches": 4205,
      "atform": 4206,
      "hesis": 4207,
      "Ġcitizens": 4208,
      "pped": 4209,
      "ributed": 4210,
      "met": 4211,
      "Ġgoals": 4212,
      "Ġwatch": 4213,
      "Ġprocessing": 4214,
      "Ġinsect": 4215,
      "Ġseven": 4216,
      "Ġalgorithm": 4217,
      "ĠAng": 4218,
      "atically": 4219,
      "Ġincorpor": 4220,
      "ĠMedic": 4221,
      "Ġemphas": 4222,
      "zz": 4223,
      "wards": 4224,
      "Ġeventually": 4225,
      "Ġ2000": 4226,
      "Ġexperiments": 4227,
      "Ġtruth": 4228,
      "Ġheavy": 4229,
      "Ġfavor": 4230,
      "Ġdecades": 4231,
      "ategy": 4232,
      "Ġsuppl": 4233,
      "Ġdetect": 4234,
      "ilit": 4235,
      "Ġclassroom": 4236,
      "Ġlayer": 4237,
      "change": 4238,
      "Ġglass": 4239,
      "Ġcand": 4240,
      "Ġaspects": 4241,
      "Ġdecisions": 4242,
      "oma": 4243,
      "Ġcharacteristics": 4244,
      "Ġorganizations": 4245,
      "Ġfert": 4246,
      "bal": 4247,
      "ĠPal": 4248,
      "Ġdemonstrate": 4249,
      "ĠDes": 4250,
      "Ġindependent": 4251,
      "ube": 4252,
      "90": 4253,
      "Ġbone": 4254,
      "Ġstrategy": 4255,
      "Ġfigure": 4256,
      "Ġcelebr": 4257,
      "Ġ2017": 4258,
      "Ġsac": 4259,
      "Ġoperations": 4260,
      "Ġfields": 4261,
      "Ġeasier": 4262,
      "uls": 4263,
      "Ġspring": 4264,
      "Ġliqu": 4265,
      "plications": 4266,
      "Ġcomprehens": 4267,
      "ĠCongress": 4268,
      "Ġmer": 4269,
      "Un": 4270,
      "Ġimmediately": 4271,
      "ĠMat": 4272,
      "Ġmale": 4273,
      "ructure": 4274,
      "Ġhappen": 4275,
      "Ġpick": 4276,
      "ET": 4277,
      "Ġcombination": 4278,
      "Ġreality": 4279,
      "Ġmilk": 4280,
      "Ġmo": 4281,
      "ii": 4282,
      "Ġserve": 4283,
      "orial": 4284,
      "Ġjournal": 4285,
      "ulum": 4286,
      "ĠEgypt": 4287,
      "ĠBra": 4288,
      "ĠColle": 4289,
      "eces": 4290,
      "Ġmedicine": 4291,
      "ĠGreen": 4292,
      "Ġboard": 4293,
      "nes": 4294,
      "ĠWestern": 4295,
      "Is": 4296,
      "Ġreference": 4297,
      "Ġeffectively": 4298,
      "unction": 4299,
      "All": 4300,
      "ingly": 4301,
      "Ġdivers": 4302,
      "Ġrelease": 4303,
      ".;": 4304,
      "Ġconnected": 4305,
      "Ġupd": 4306,
      "ĠLet": 4307,
      "iant": 4308,
      "Ġcycle": 4309,
      "Ġactual": 4310,
      "Ġsave": 4311,
      "Be": 4312,
      "Ġreducing": 4313,
      "Ġpolicies": 4314,
      "ĠLord": 4315,
      "Ġapproximately": 4316,
      "Ġbank": 4317,
      "ressive": 4318,
      "Ġassessment": 4319,
      "PS": 4320,
      "Ġbed": 4321,
      "Ġdepression": 4322,
      "Ġbecoming": 4323,
      "erate": 4324,
      "Ġ2006": 4325,
      "Ġslight": 4326,
      "Ġremove": 4327,
      "ophy": 4328,
      "erences": 4329,
      "ĠProgram": 4330,
      "Ġclasses": 4331,
      "Ġfaith": 4332,
      "ĠDon": 4333,
      "Ġestimated": 4334,
      "ĠPublic": 4335,
      "Ġopin": 4336,
      "iated": 4337,
      "aus": 4338,
      "ĠUnder": 4339,
      "Ġparticipants": 4340,
      "ocal": 4341,
      "ologist": 4342,
      "Ġâ": 4343,
      "enth": 4344,
      "Ġelectricity": 4345,
      "Ġnumerous": 4346,
      "Ġletter": 4347,
      "Ġfamous": 4348,
      "ĠHuman": 4349,
      "Ġinterpret": 4350,
      "Ġdesp": 4351,
      "After": 4352,
      "opy": 4353,
      "Ġtransl": 4354,
      "35": 4355,
      "Ġign": 4356,
      "ĠUN": 4357,
      "ognitive": 4358,
      "amental": 4359,
      "HE": 4360,
      "ortion": 4361,
      "Ġbodies": 4362,
      "Ġfrequently": 4363,
      "Ġves": 4364,
      "ĠMary": 4365,
      "ĠTherefore": 4366,
      "Ġpopulations": 4367,
      "ĠJames": 4368,
      "Ġrecords": 4369,
      "ĠJapanese": 4370,
      "Ġpropose": 4371,
      "Ġsamples": 4372,
      "ception": 4373,
      "rete": 4374,
      "ĠOb": 4375,
      "Ġ80": 4376,
      "ĠRel": 4377,
      "Ġtrust": 4378,
      "Ġrecommended": 4379,
      "Ġunivers": 4380,
      "Ġmetal": 4381,
      "uit": 4382,
      "Ġfig": 4383,
      "They": 4384,
      "Ġreleased": 4385,
      "ĠMor": 4386,
      "Ġdistinct": 4387,
      "ĠFurther": 4388,
      "rant": 4389,
      "Ġrisks": 4390,
      "Ġkid": 4391,
      "eline": 4392,
      "Ġsexual": 4393,
      "Ġcounter": 4394,
      "Ġrelationships": 4395,
      "Ġtemperatures": 4396,
      "Ġnutrition": 4397,
      "Ġlegis": 4398,
      "ĠPlan": 4399,
      "ĠMich": 4400,
      "ida": 4401,
      "clus": 4402,
      "alle": 4403,
      "ĠSocial": 4404,
      "Ġdestroy": 4405,
      "ĠVol": 4406,
      "Ġgene": 4407,
      "cular": 4408,
      "Ġupper": 4409,
      "Ġfailure": 4410,
      "Ġvul": 4411,
      "porary": 4412,
      "Ġchanging": 4413,
      "Ġdisorders": 4414,
      "Ġoxygen": 4415,
      "Ġnuclear": 4416,
      "Ġmoved": 4417,
      "Ġshap": 4418,
      "Ġparty": 4419,
      "ager": 4420,
      "Ġpresident": 4421,
      "raw": 4422,
      "Ġinternal": 4423,
      "Ġcausing": 4424,
      "ĠFound": 4425,
      "Ġbuy": 4426,
      "Ġfinding": 4427,
      "Ġhousehold": 4428,
      "Ġorganic": 4429,
      "Ġtrig": 4430,
      "Ġinvolves": 4431,
      "Â°": 4432,
      "Ġbuildings": 4433,
      "Ġnotes": 4434,
      "Ġleads": 4435,
      "ias": 4436,
      "Ġstore": 4437,
      "Ġcompl": 4438,
      "Ġdrop": 4439,
      "Ġcorrespond": 4440,
      "Ġimproved": 4441,
      "Ġchronic": 4442,
      "Ġstorage": 4443,
      "OS": 4444,
      "ologists": 4445,
      "ĠChe": 4446,
      "Ġdrive": 4447,
      "roph": 4448,
      "Ġmag": 4449,
      "tee": 4450,
      "roup": 4451,
      "Ġflood": 4452,
      "ulf": 4453,
      "Ġisol": 4454,
      "uration": 4455,
      "Ġpractical": 4456,
      "Ġdoub": 4457,
      "uracy": 4458,
      "ĠChildren": 4459,
      "ĠDavid": 4460,
      "Ġgames": 4461,
      "Ġload": 4462,
      "Ġesc": 4463,
      "anging": 4464,
      "Ġstatement": 4465,
      "Ġrelevant": 4466,
      "Ġprefer": 4467,
      "Ġconnection": 4468,
      "olved": 4469,
      "Ġvitamin": 4470,
      "ĠWeb": 4471,
      "Ġcore": 4472,
      "Ġfilm": 4473,
      "Ġviolence": 4474,
      "Ġhomes": 4475,
      "Ġadvanced": 4476,
      "Sh": 4477,
      "Ġclearly": 4478,
      "Ġ2005": 4479,
      "ĠCouncil": 4480,
      "Ġstarting": 4481,
      "edic": 4482,
      "do": 4483,
      "Ġdri": 4484,
      "Ġauthors": 4485,
      "Ġpi": 4486,
      "Ġsche": 4487,
      "Ġdiscussion": 4488,
      "Ġbackground": 4489,
      "tered": 4490,
      "Ġdogs": 4491,
      "Ġhttps": 4492,
      "ĠAv": 4493,
      "Ġtim": 4494,
      "Ġtrend": 4495,
      "45": 4496,
      "Ġminor": 4497,
      "Ġadjust": 4498,
      "Ġsignal": 4499,
      "ped": 4500,
      "Ġreprodu": 4501,
      "ĠCollege": 4502,
      "Ġconfirm": 4503,
      "ĠSam": 4504,
      "Ġappe": 4505,
      "Sc": 4506,
      "Ġvolume": 4507,
      "Ġgets": 4508,
      "Ġplatform": 4509,
      "Ġcollege": 4510,
      "ĠWhy": 4511,
      "Ġbottom": 4512,
      "Ġinflamm": 4513,
      "ĠSee": 4514,
      "Ġemail": 4515,
      "Ġadvantage": 4516,
      "ĠGreek": 4517,
      "Ġphase": 4518,
      "Ġvalid": 4519,
      "Ġexpression": 4520,
      "ifying": 4521,
      "RE": 4522,
      "Ġkilled": 4523,
      "Ġmostly": 4524,
      "Ġ...": 4525,
      "78": 4526,
      "Ġcampaign": 4527,
      "Ġdescribe": 4528,
      "Ġpartners": 4529,
      "Ġmathemat": 4530,
      "ij": 4531,
      "Ġcopy": 4532,
      "Ġmessage": 4533,
      "Ġlived": 4534,
      "Ġcreation": 4535,
      "Ġcovered": 4536,
      "Ġexactly": 4537,
      "Ġexperts": 4538,
      "rest": 4539,
      "erved": 4540,
      "Ġready": 4541,
      "Ġreplace": 4542,
      "Ġprepar": 4543,
      "ĠInf": 4544,
      "Ġwanted": 4545,
      "Ġtour": 4546,
      "Ġpreviously": 4547,
      "ĠWork": 4548,
      "rep": 4549,
      "Ġprinciples": 4550,
      "olid": 4551,
      "Ġdegrees": 4552,
      "Ġpip": 4553,
      "Ġocean": 4554,
      "rum": 4555,
      "Ph": 4556,
      "Ġburn": 4557,
      "Ġinjury": 4558,
      "Ġexpert": 4559,
      "ĠMark": 4560,
      "urance": 4561,
      "Ġreferred": 4562,
      "Ġarm": 4563,
      "Ġradio": 4564,
      "vert": 4565,
      "essor": 4566,
      "Ġcircum": 4567,
      "Ġvessel": 4568,
      "Ġnoted": 4569,
      "Ġsurgery": 4570,
      "Ġinfections": 4571,
      "Ġanyone": 4572,
      "Ġ190": 4573,
      "Ġlanguages": 4574,
      "Ġremoved": 4575,
      "Ġanxiety": 4576,
      "key": 4577,
      "Ġthick": 4578,
      "Ġsav": 4579,
      "Ġbattle": 4580,
      "ĠDevelopment": 4581,
      "Ar": 4582,
      "ĠRepublic": 4583,
      "Ġhappens": 4584,
      "ault": 4585,
      "Ġhear": 4586,
      "rog": 4587,
      "Ġ#": 4588,
      "Ġturned": 4589,
      "Ġencourage": 4590,
      "Ġhorm": 4591,
      "rows": 4592,
      "ĠTest": 4593,
      "33": 4594,
      "otic": 4595,
      "level": 4596,
      "Ġsand": 4597,
      "Ġseed": 4598,
      "ressed": 4599,
      "Ġunf": 4600,
      "ĠFood": 4601,
      "Sp": 4602,
      "ios": 4603,
      "Ġregarding": 4604,
      "Ġtooth": 4605,
      "ĠAir": 4606,
      "Ġacademic": 4607,
      "ĠTex": 4608,
      "Ġtum": 4609,
      "Ġchann": 4610,
      "Ġunits": 4611,
      "ĠSpanish": 4612,
      "Ġterrit": 4613,
      "osystem": 4614,
      "ĠMuseum": 4615,
      "Ġwin": 4616,
      "Ġelimin": 4617,
      "Ġcris": 4618,
      "Ġrand": 4619,
      "vision": 4620,
      "Ġfreedom": 4621,
      "Ġast": 4622,
      "ping": 4623,
      "Ġdatab": 4624,
      "Ġ29": 4625,
      "Ġoperation": 4626,
      "Ġfeeling": 4627,
      "Ġconcepts": 4628,
      "ĠPaul": 4629,
      "Ġdetermined": 4630,
      "Ġtraff": 4631,
      "Ġlandsc": 4632,
      "Ġproperly": 4633,
      "ĠFore": 4634,
      "onic": 4635,
      "Ġdangerous": 4636,
      "However": 4637,
      "ux": 4638,
      "Ġattacks": 4639,
      "Ġengineering": 4640,
      "Ġreduction": 4641,
      "Ġgenes": 4642,
      "Ġnor": 4643,
      "Ġinvolve": 4644,
      "ortunately": 4645,
      "Ġconv": 4646,
      "Ġtrib": 4647,
      "Ġpric": 4648,
      "Ġconcerns": 4649,
      "Ġseeds": 4650,
      "Ġrandom": 4651,
      "Ġphysic": 4652,
      "Ġmanner": 4653,
      "mal": 4654,
      "Ġemotional": 4655,
      "Ġtrou": 4656,
      "zing": 4657,
      "Ġexcell": 4658,
      "Ġmentioned": 4659,
      "AD": 4660,
      "Ġdram": 4661,
      "Ġflex": 4662,
      "ĠâĢ¦": 4663,
      "riculum": 4664,
      "Ġgender": 4665,
      "ĠPhys": 4666,
      "Ġaccuracy": 4667,
      "Ġoption": 4668,
      "Ġbelong": 4669,
      "Ġrace": 4670,
      "Ġconflict": 4671,
      "ded": 4672,
      "ĠGeorge": 4673,
      "Ġannual": 4674,
      "ĠGovernment": 4675,
      "Ġradiation": 4676,
      "ishing": 4677,
      "Ġdepending": 4678,
      "Ġmeeting": 4679,
      "ĠGra": 4680,
      "urt": 4681,
      "lick": 4682,
      "Ġexperienced": 4683,
      "ĠOnce": 4684,
      "Ġinfluen": 4685,
      "Ġdie": 4686,
      "ndrome": 4687,
      "ĠCourt": 4688,
      "ĠOrgan": 4689,
      "Ġ90": 4690,
      "Ġfrequency": 4691,
      "Ġsolid": 4692,
      "anguage": 4693,
      "Ġwhom": 4694,
      "Ġhelped": 4695,
      "ĠRober": 4696,
      "iling": 4697,
      "standing": 4698,
      "Ġ186": 4699,
      "Ġaccurate": 4700,
      "Ġdiss": 4701,
      "Ġamounts": 4702,
      "Ġpal": 4703,
      "Ġprofession": 4704,
      "ĠData": 4705,
      "Ġvictim": 4706,
      "ĠSub": 4707,
      "Ġpret": 4708,
      "Ġprocedure": 4709,
      "Ġlung": 4710,
      "Ġcrucial": 4711,
      "ĠST": 4712,
      "Ġreligion": 4713,
      "eties": 4714,
      "Ġexposed": 4715,
      "Ġpromote": 4716,
      "place": 4717,
      "ancing": 4718,
      "Ġreaction": 4719,
      "ĠProject": 4720,
      "Ġlinked": 4721,
      "Ġmath": 4722,
      "ĠCath": 4723,
      "ules": 4724,
      "Ġround": 4725,
      "uted": 4726,
      "oyal": 4727,
      "mat": 4728,
      "Ġvulner": 4729,
      "Ġjour": 4730,
      "75": 4731,
      "Ġclick": 4732,
      "ĠUsing": 4733,
      "inate": 4734,
      "Ġmotiv": 4735,
      "Ġdefinition": 4736,
      "with": 4737,
      "ĠDem": 4738,
      "Ġ2018": 4739,
      "Ġgrade": 4740,
      "Ġpollution": 4741,
      "Ġvot": 4742,
      "itz": 4743,
      "Ġdiagnosis": 4744,
      "CC": 4745,
      "Ġmotion": 4746,
      "Ġmotor": 4747,
      "Ġinh": 4748,
      "riage": 4749,
      "According": 4750,
      "ander": 4751,
      "Ġnav": 4752,
      "bed": 4753,
      "Ġ70": 4754,
      "Ġsort": 4755,
      "Ġmist": 4756,
      "Ġdiscover": 4757,
      "Ġsufficient": 4758,
      "Ġspot": 4759,
      "Ġgrant": 4760,
      "uing": 4761,
      "Ġgod": 4762,
      "ĠIts": 4763,
      "Ġconservation": 4764,
      "Ġcalc": 4765,
      "comes": 4766,
      "Ġreb": 4767,
      "ĠLa": 4768,
      "Ġkept": 4769,
      "Ġgrass": 4770,
      "Ġshared": 4771,
      "cers": 4772,
      "Ġhelping": 4773,
      "Ġheard": 4774,
      "alled": 4775,
      "Ġallowing": 4776,
      "Ġcoal": 4777,
      "ĠDi": 4778,
      "AP": 4779,
      "stitution": 4780,
      "Ġbud": 4781,
      "ormal": 4782,
      "Ġextract": 4783,
      "Ġmanage": 4784,
      "Ġmanufacture": 4785,
      "Ġsquare": 4786,
      "Ġmainly": 4787,
      "Ġimpl": 4788,
      "Ġhyper": 4789,
      "Ġserved": 4790,
      "umn": 4791,
      "road": 4792,
      "Ġpresc": 4793,
      "Ġisland": 4794,
      "Ġinterested": 4795,
      "uable": 4796,
      "Ġbeautiful": 4797,
      "OT": 4798,
      "ago": 4799,
      "ĠMal": 4800,
      "Ġmeat": 4801,
      "iverse": 4802,
      "ĠBel": 4803,
      "Ġplease": 4804,
      "ĠAI": 4805,
      "Ġfol": 4806,
      "Ġarticles": 4807,
      "ĠNAS": 4808,
      "Ġconclud": 4809,
      "36": 4810,
      "ĠHIV": 4811,
      "ĠMount": 4812,
      "kin": 4813,
      "Ġwealth": 4814,
      "100": 4815,
      "ĠSun": 4816,
      "gra": 4817,
      "ĠClass": 4818,
      "ĠJews": 4819,
      "ĠDist": 4820,
      "ta": 4821,
      "imal": 4822,
      "Ġprepared": 4823,
      "za": 4824,
      "Ġaid": 4825,
      "Ġmeant": 4826,
      "board": 4827,
      "Ġpun": 4828,
      "ya": 4829,
      "rence": 4830,
      "Ġcomfort": 4831,
      "ĠEvery": 4832,
      "well": 4833,
      "ĠAD": 4834,
      "ĠAsia": 4835,
      "mp": 4836,
      "ams": 4837,
      "oking": 4838,
      "Ġconcern": 4839,
      "ria": 4840,
      "Ġadvance": 4841,
      "Ġpages": 4842,
      "ĠIsland": 4843,
      "ĠBay": 4844,
      "ĠPort": 4845,
      "ĠÃ": 4846,
      "Ġcombined": 4847,
      "Ġeggs": 4848,
      "Ġmel": 4849,
      "Ġdecided": 4850,
      "Ġhour": 4851,
      "espite": 4852,
      "oper": 4853,
      "Ġenhance": 4854,
      "Ġsaying": 4855,
      "ĠRich": 4856,
      "Ġobvious": 4857,
      "rans": 4858,
      "Ġdetection": 4859,
      "ĠRem": 4860,
      "Ġfarmers": 4861,
      "acing": 4862,
      "ĠHen": 4863,
      "ĠService": 4864,
      "Ġawareness": 4865,
      "Ġconsult": 4866,
      "Ġspent": 4867,
      "ĠTur": 4868,
      "clusion": 4869,
      "Ġship": 4870,
      "ĠHel": 4871,
      "Con": 4872,
      "Ġcontribute": 4873,
      "Ġobtained": 4874,
      "Ġclos": 4875,
      "Ġkill": 4876,
      "Ġseek": 4877,
      "Ġcast": 4878,
      "ĠNetw": 4879,
      "isher": 4880,
      "tes": 4881,
      "Ġindicate": 4882,
      "Ġsouthern": 4883,
      "Ġcompleted": 4884,
      "Ġcoord": 4885,
      "Ġvolunt": 4886,
      "lease": 4887,
      "Ġnorthern": 4888,
      "Ġhearing": 4889,
      "Ġerror": 4890,
      "bi": 4891,
      "Ġsustainable": 4892,
      "ĠMexico": 4893,
      "Ġowners": 4894,
      "Ġcredit": 4895,
      "tion": 4896,
      "wood": 4897,
      "Ġcontinuous": 4898,
      "berg": 4899,
      "Ġinvent": 4900,
      "leg": 4901,
      "Ġrecon": 4902,
      "Ġreached": 4903,
      "des": 4904,
      "vis": 4905,
      "onomic": 4906,
      "ixt": 4907,
      "Ġinstitutions": 4908,
      "ective": 4909,
      "Ġphenomen": 4910,
      "Ġfocused": 4911,
      "Ġtrain": 4912,
      "Ġshowing": 4913,
      "Ġvaccine": 4914,
      "Ġcollected": 4915,
      "ĠIsl": 4916,
      "ificial": 4917,
      "Ġfaster": 4918,
      "ĠStudents": 4919,
      "aughter": 4920,
      "Ġsupported": 4921,
      "ball": 4922,
      "Ġsatis": 4923,
      "Ġvegetables": 4924,
      "That": 4925,
      "Ġsong": 4926,
      "Ġcere": 4927,
      "Ġformation": 4928,
      "point": 4929,
      "Ġsecret": 4930,
      "Ġatmosphere": 4931,
      "38": 4932,
      "Ġspecifically": 4933,
      "ĠDef": 4934,
      "Ġ2004": 4935,
      "ĠBer": 4936,
      "nic": 4937,
      "Ġstation": 4938,
      "Ġpurposes": 4939,
      "rier": 4940,
      "ĠWhite": 4941,
      "Ġsituations": 4942,
      "Ġhospital": 4943,
      "Ġhop": 4944,
      "ishes": 4945,
      "ĠTexas": 4946,
      "Ġrecorded": 4947,
      "ĠSer": 4948,
      "osite": 4949,
      "Ġwest": 4950,
      "which": 4951,
      "Ġrevolution": 4952,
      "Ġprimarily": 4953,
      "celer": 4954,
      "Ġprofessor": 4955,
      "Here": 4956,
      "Ġchemicals": 4957,
      "ĠMars": 4958,
      "igation": 4959,
      "ulating": 4960,
      "anch": 4961,
      "Res": 4962,
      "Ġpieces": 4963,
      "Ġcontinues": 4964,
      "Ġmort": 4965,
      "ĠSecond": 4966,
      "Ġmaximum": 4967,
      "Ġlooks": 4968,
      "Ġlesson": 4969,
      "ĠCentral": 4970,
      "astern": 4971,
      "Äģ": 4972,
      "Ġfundamental": 4973,
      "Ġyellow": 4974,
      "abil": 4975,
      "Ġintended": 4976,
      "Ġtechnical": 4977,
      "ĠMet": 4978,
      "Ġnotice": 4979,
      "Ġideal": 4980,
      "aker": 4981,
      "Ġsyn": 4982,
      "Ġperspective": 4983,
      "ample": 4984,
      "Ġappoint": 4985,
      "Ġmix": 4986,
      "Ġlib": 4987,
      "Ġexistence": 4988,
      "Ġcharge": 4989,
      "Ġgenerate": 4990,
      "Ġlargely": 4991,
      "Ġdepth": 4992,
      "Ġpul": 4993,
      "ĠBas": 4994,
      "Ġther": 4995,
      "Ġstraight": 4996,
      "Ġelectrical": 4997,
      "CO": 4998,
      "akers": 4999,
      "Ã¡": 5000,
      "Ġfinally": 5001,
      "Ġdro": 5002,
      "Ġvehicle": 5003,
      "Ġlabel": 5004,
      "Ġidentity": 5005,
      "aturally": 5006,
      "eria": 5007,
      "Ġsubstant": 5008,
      "Ġheight": 5009,
      "Ġ2020": 5010,
      "arant": 5011,
      "acific": 5012,
      "Ġauthority": 5013,
      "Ġoperating": 5014,
      "Ġtoxic": 5015,
      "Ġcomponent": 5016,
      "Ġbegins": 5017,
      "Ġexplan": 5018,
      "Ġ35": 5019,
      "ĠMac": 5020,
      "ounced": 5021,
      "olute": 5022,
      "Ġextent": 5023,
      "Ġrenew": 5024,
      "acters": 5025,
      "ĠAcad": 5026,
      "Ġsubjects": 5027,
      "Ġstorm": 5028,
      "Ġhit": 5029,
      "gl": 5030,
      "ĠBritain": 5031,
      "Ġyouth": 5032,
      "ĠJer": 5033,
      "Ġexternal": 5034,
      "ether": 5035,
      "Ġbrother": 5036,
      "Ġdetailed": 5037,
      "Ġmaster": 5038,
      "ĠMiss": 5039,
      "ventional": 5040,
      "Ġkinds": 5041,
      "Ġfacts": 5042,
      "'ll": 5043,
      "Ġjobs": 5044,
      "Ġvital": 5045,
      "Ġdrinking": 5046,
      "ses": 5047,
      "Ġmonitoring": 5048,
      "ek": 5049,
      "Ġtreatments": 5050,
      "Many": 5051,
      "ears": 5052,
      "Ġpark": 5053,
      "ĠOp": 5054,
      "ĠBen": 5055,
      "ĠEnergy": 5056,
      "].": 5057,
      "Ġevaluation": 5058,
      "arrow": 5059,
      "ĠNASA": 5060,
      "inger": 5061,
      "Ġstudied": 5062,
      "ĠArab": 5063,
      "ags": 5064,
      "Ġbond": 5065,
      "Ġoffered": 5066,
      "Although": 5067,
      "Ġlic": 5068,
      "ĠOld": 5069,
      "ras": 5070,
      "Ġliquid": 5071,
      "Ġconsequences": 5072,
      "Ġdiverse": 5073,
      "Ġtested": 5074,
      "Ġbrief": 5075,
      "Ġwet": 5076,
      "Ġsector": 5077,
      "Ġdespite": 5078,
      "ooth": 5079,
      "ĠThomas": 5080,
      "Ġrein": 5081,
      "Ġimpacts": 5082,
      "Ġtopics": 5083,
      "Ġfib": 5084,
      "Ġecosystem": 5085,
      "osen": 5086,
      "Now": 5087,
      "Ġ2003": 5088,
      "free": 5089,
      "Our": 5090,
      "istan": 5091,
      "Ġincreasingly": 5092,
      "Ġshar": 5093,
      "Ġkeeping": 5094,
      "ĠMart": 5095,
      "Ġsets": 5096,
      "RO": 5097,
      "ĠSal": 5098,
      "Ġsmart": 5099,
      "rations": 5100,
      "Ġcertainly": 5101,
      "rich": 5102,
      "rates": 5103,
      "ensus": 5104,
      "inent": 5105,
      "ĠLou": 5106,
      "Ġthr": 5107,
      "rastructure": 5108,
      "Ġremained": 5109,
      "Ġforced": 5110,
      "inant": 5111,
      "vironments": 5112,
      "ossible": 5113,
      "rapy": 5114,
      "ĠHol": 5115,
      "34": 5116,
      "ĠSpace": 5117,
      "Ġmeasured": 5118,
      "RI": 5119,
      "EL": 5120,
      "ipped": 5121,
      "Ġfort": 5122,
      "going": 5123,
      "Ġtaught": 5124,
      "ĠMr": 5125,
      "ĠDise": 5126,
      "ĠCivil": 5127,
      "ĠCam": 5128,
      "ĠVirgin": 5129,
      "Ġcognitive": 5130,
      "Ġwonder": 5131,
      "Ġoccurred": 5132,
      "ague": 5133,
      "Ġmuscles": 5134,
      "atric": 5135,
      "Ġfoss": 5136,
      "roke": 5137,
      "Ġgar": 5138,
      "inding": 5139,
      "Ġmorning": 5140,
      "Ġspl": 5141,
      "Ġneural": 5142,
      "ache": 5143,
      "Ġarmy": 5144,
      "99": 5145,
      "Ġconsists": 5146,
      "ĠNews": 5147,
      "ĠTwo": 5148,
      "Cl": 5149,
      "Ġpotentially": 5150,
      "Ġtypical": 5151,
      "Ġiniti": 5152,
      "Ġwaters": 5153,
      "Ġvast": 5154,
      "Ġdial": 5155,
      "Ġdouble": 5156,
      "MS": 5157,
      "ĠSen": 5158,
      "Ġbird": 5159,
      "col": 5160,
      "Ġdigest": 5161,
      "Ġdoll": 5162,
      "ĠMedical": 5163,
      "rian": 5164,
      "Ġnutrients": 5165,
      "Ġparticles": 5166,
      "tra": 5167,
      "Ġperman": 5168,
      "down": 5169,
      "US": 5170,
      "inf": 5171,
      "Ġcenturies": 5172,
      "Ġroll": 5173,
      "Ġcareer": 5174,
      "Ġemergency": 5175,
      "icit": 5176,
      "Ġspend": 5177,
      "Ġleader": 5178,
      "Ġlov": 5179,
      "Ġresist": 5180,
      "Ġbright": 5181,
      "Ġflowers": 5182,
      "Ġeast": 5183,
      "ĠFre": 5184,
      "Ġcert": 5185,
      "stream": 5186,
      "Ġexcellent": 5187,
      "Ġstone": 5188,
      "Ġsurrounding": 5189,
      "ey": 5190,
      "Why": 5191,
      "Ġaffects": 5192,
      "Ġraised": 5193,
      "Ġ*": 5194,
      "roid": 5195,
      "Ġgenerated": 5196,
      "Ġkn": 5197,
      "Ġvoice": 5198,
      "Ġmetab": 5199,
      "ĠIr": 5200,
      "BC": 5201,
      "Ġadvice": 5202,
      "nel": 5203,
      "ĠExper": 5204,
      "Ġsubsequ": 5205,
      "Ġrecy": 5206,
      "Ġcharacters": 5207,
      "Ġarchitecture": 5208,
      "Ġresponsibility": 5209,
      "inn": 5210,
      "ĠDirect": 5211,
      "ĠBoth": 5212,
      "Ġsalt": 5213,
      "Ġwire": 5214,
      "ĠLatin": 5215,
      "Ġsettle": 5216,
      "Ġselection": 5217,
      "Ġcontrolled": 5218,
      "olars": 5219,
      "ĠElect": 5220,
      "Ġbill": 5221,
      "Ġletters": 5222,
      "ĠFranc": 5223,
      "ĠToday": 5224,
      "itness": 5225,
      "Ġfelt": 5226,
      "Ġlinks": 5227,
      "Ġbiological": 5228,
      "Ġdomain": 5229,
      "Ġdepends": 5230,
      "ĠInformation": 5231,
      "Ġfacilit": 5232,
      "ĠAtl": 5233,
      "anges": 5234,
      "oughly": 5235,
      "field": 5236,
      "west": 5237,
      "Ġrefers": 5238,
      "ado": 5239,
      "Ġproteins": 5240,
      "Ġonto": 5241,
      "48": 5242,
      "ĠMuslim": 5243,
      "enses": 5244,
      "ĠArmy": 5245,
      "ĠMedicine": 5246,
      "Ġminimum": 5247,
      "Ġmit": 5248,
      "Ġnations": 5249,
      "osc": 5250,
      "Ġachieved": 5251,
      "what": 5252,
      "Ġperiods": 5253,
      "Ġsuggested": 5254,
      "Ġgoods": 5255,
      "Ġwife": 5256,
      "Ġoral": 5257,
      "Ġliver": 5258,
      "Ġdomestic": 5259,
      "Ġmobile": 5260,
      "resents": 5261,
      "Ġclim": 5262,
      "spec": 5263,
      "Ġexplains": 5264,
      "band": 5265,
      "Ġnerv": 5266,
      "Ġdiversity": 5267,
      "unk": 5268,
      "Ġgrand": 5269,
      "DF": 5270,
      "ails": 5271,
      "ĠAN": 5272,
      "Ġinstruction": 5273,
      "Ġdriving": 5274,
      "Ġhaz": 5275,
      "omy": 5276,
      "Ġcomment": 5277,
      "Ġfluid": 5278,
      "rust": 5279,
      "ĠSom": 5280,
      "Ġsounds": 5281,
      "Ġdiam": 5282,
      "ĠCommission": 5283,
      "Ġ1990": 5284,
      "Ġotherwise": 5285,
      "Ġmoist": 5286,
      "Ġcomprehensive": 5287,
      "ĠTechnology": 5288,
      "ditionally": 5289,
      "Ġfamiliar": 5290,
      "Ġextensive": 5291,
      "oxide": 5292,
      "Ġagricultural": 5293,
      "New": 5294,
      "Ġcontaining": 5295,
      "Ġoutcomes": 5296,
      "Ġband": 5297,
      "ĠEff": 5298,
      "Ġmere": 5299,
      "li": 5300,
      "ĠMass": 5301,
      "Ġtraffic": 5302,
      "ĠLife": 5303,
      "Ġtro": 5304,
      "Ġdivided": 5305,
      "Ġsolve": 5306,
      "ario": 5307,
      "Ġpref": 5308,
      "oo": 5309,
      "TS": 5310,
      "Ġlik": 5311,
      "Ġslightly": 5312,
      "Ġhelpful": 5313,
      "van": 5314,
      "Ġplayed": 5315,
      "Ġsurpris": 5316,
      "Ġvent": 5317,
      "Ġalgorithms": 5318,
      "iced": 5319,
      "body": 5320,
      "Ġaren": 5321,
      "osa": 5322,
      "Ġflat": 5323,
      "inations": 5324,
      "stood": 5325,
      "ints": 5326,
      "Ġblog": 5327,
      "Ġ2001": 5328,
      "active": 5329,
      "Ġfacilities": 5330,
      "Ġinterests": 5331,
      "'ve": 5332,
      "37": 5333,
      "ael": 5334,
      "Ġsin": 5335,
      "Ġsend": 5336,
      "Ġvaluable": 5337,
      "Ġtrained": 5338,
      "Ġfollows": 5339,
      "Ġenvironments": 5340,
      "Ġexplained": 5341,
      "Ġkil": 5342,
      "Ġthin": 5343,
      "Ġnit": 5344,
      "Ġcrops": 5345,
      "95": 5346,
      "Ġju": 5347,
      "Ġgreatest": 5348,
      "aks": 5349,
      "Most": 5350,
      "Ġintroduction": 5351,
      "struct": 5352,
      "Ġfif": 5353,
      "eck": 5354,
      "athy": 5355,
      "Ġcrisis": 5356,
      "Ġimmig": 5357,
      "Ġformat": 5358,
      "onomy": 5359,
      "name": 5360,
      "Ġobtain": 5361,
      "verty": 5362,
      "Ġrequest": 5363,
      "Ġastr": 5364,
      "Ġharvest": 5365,
      "ompl": 5366,
      "ĠMil": 5367,
      "Ġlose": 5368,
      "asure": 5369,
      "Ġpoverty": 5370,
      "ĠFoundation": 5371,
      "Ġinterview": 5372,
      "ĠQue": 5373,
      "utive": 5374,
      "Ġselected": 5375,
      "igenous": 5376,
      "othing": 5377,
      "gal": 5378,
      "ĠDisc": 5379,
      "Ġimproving": 5380,
      "hi": 5381,
      "Ġdeliver": 5382,
      "Ġrepresents": 5383,
      "apping": 5384,
      "Ġgirls": 5385,
      "Ġmechanism": 5386,
      "Ġneut": 5387,
      "Ġinstrument": 5388,
      "Ġexpensive": 5389,
      "ht": 5390,
      "CS": 5391,
      "Ġpil": 5392,
      "Ġphone": 5393,
      "ĠBible": 5394,
      "Ġimmun": 5395,
      "Ġrapidly": 5396,
      "ĠOut": 5397,
      "Ġapparent": 5398,
      "Ġinvestment": 5399,
      "ĠJud": 5400,
      "Ġnoise": 5401,
      "Ġpaint": 5402,
      "Ġintelligence": 5403,
      "Ġrail": 5404,
      "oding": 5405,
      "Ġconsid": 5406,
      "alysis": 5407,
      "ION": 5408,
      "umin": 5409,
      "Ġgrown": 5410,
      "Ġkm": 5411,
      "Ġargument": 5412,
      "Ġcapable": 5413,
      "Ġdecrease": 5414,
      "Ġsequence": 5415,
      "Go": 5416,
      "Ġviews": 5417,
      "Ġappearance": 5418,
      "ĠBook": 5419,
      "Ġsnow": 5420,
      "Ġfruits": 5421,
      "Ġprinciple": 5422,
      "Ġcurriculum": 5423,
      "Ġwestern": 5424,
      "Ġstem": 5425,
      "Ġpolice": 5426,
      "ĠFlor": 5427,
      "ĠControl": 5428,
      "win": 5429,
      "Ġpersons": 5430,
      "Ġtips": 5431,
      "ctor": 5432,
      "ĠMult": 5433,
      "Ġclust": 5434,
      "Ġclosely": 5435,
      "fl": 5436,
      "Ġrural": 5437,
      "pat": 5438,
      "Ġprecise": 5439,
      "Ġintroduce": 5440,
      "Ġstars": 5441,
      "Ġhappened": 5442,
      "Ġhundreds": 5443,
      "pass": 5444,
      "Ġabuse": 5445,
      "Ġroots": 5446,
      "Ġprices": 5447,
      "ĠBur": 5448,
      "Ġelev": 5449,
      "Ġdiscussed": 5450,
      "Ġsen": 5451,
      "From": 5452,
      "BN": 5453,
      "ville": 5454,
      "ĠSou": 5455,
      "Ġplaying": 5456,
      "ĠPost": 5457,
      "Ġhabitat": 5458,
      "Ġcardi": 5459,
      "Ġdisapp": 5460,
      "Ġdistingu": 5461,
      "ĠRobert": 5462,
      "ĠBC": 5463,
      "ĠPacific": 5464,
      "Pl": 5465,
      "Ġsecure": 5466,
      "No": 5467,
      "Im": 5468,
      "ĠBudd": 5469,
      "Ġthoughts": 5470,
      "Ġconcerned": 5471,
      "Ġbow": 5472,
      "Ġbehaviour": 5473,
      "ĠSuch": 5474,
      "Ġdiscrim": 5475,
      "Americ": 5476,
      "Ġwel": 5477,
      "Ġpregnancy": 5478,
      "ĠExt": 5479,
      "Ġinterf": 5480,
      "ĠAtt": 5481,
      "Ġrecognized": 5482,
      "ĠMicro": 5483,
      "Ġgovernments": 5484,
      "umber": 5485,
      "itage": 5486,
      "zy": 5487,
      "that": 5488,
      "Ġprotected": 5489,
      "Ġconcentration": 5490,
      "tenance": 5491,
      "65": 5492,
      "Ġ2002": 5493,
      "Ġrecovery": 5494,
      "Ġnaturally": 5495,
      "Ġsatell": 5496,
      "Ġofficials": 5497,
      "Ġformal": 5498,
      "Ġadding": 5499,
      "Ġlooked": 5500,
      "hips": 5501,
      "Ġrecognition": 5502,
      "ĠKore": 5503,
      "chers": 5504,
      "Ġedge": 5505,
      "39": 5506,
      "Ġmedium": 5507,
      "Ġboost": 5508,
      "Ġdu": 5509,
      "Ġdiscovery": 5510,
      "Ġstock": 5511,
      "ĠMem": 5512,
      "rors": 5513,
      "Ġchallenging": 5514,
      "ĠSupp": 5515,
      "Ġprocedures": 5516,
      "Ġsuitable": 5517,
      "Ġwalls": 5518,
      "44": 5519,
      "Ġfirm": 5520,
      "ĠSl": 5521,
      "ĠStand": 5522,
      "Ġaccompl": 5523,
      "Ġreturned": 5524,
      "Ġlatest": 5525,
      "roc": 5526,
      "Ġvehicles": 5527,
      "ĠRussian": 5528,
      "ĠLake": 5529,
      "Ġfiles": 5530,
      "ĠTreat": 5531,
      "Ġvisible": 5532,
      "state": 5533,
      "Ġwave": 5534,
      "isp": 5535,
      "ĠEmp": 5536,
      "Ġinfrastructure": 5537,
      "Ġhypot": 5538,
      "rolog": 5539,
      "ĠRef": 5540,
      "Ġsuffer": 5541,
      "ĠNav": 5542,
      "fall": 5543,
      "Ġpray": 5544,
      "Ġwear": 5545,
      "Ġinternet": 5546,
      "cript": 5547,
      "alse": 5548,
      "Ġsuffering": 5549,
      "ĠGoogle": 5550,
      "Ġdocuments": 5551,
      "Ġdeaths": 5552,
      "ĠTem": 5553,
      "indu": 5554,
      "Ġtried": 5555,
      "Ġreform": 5556,
      "Ġportion": 5557,
      "Ġprison": 5558,
      "ĠInstead": 5559,
      "Ġfeelings": 5560,
      "itative": 5561,
      "ĠAnother": 5562,
      "Ġfle": 5563,
      "ascular": 5564,
      "ĠJose": 5565,
      "ĠHam": 5566,
      "Ġcloud": 5567,
      "Ġclaims": 5568,
      "ĠCD": 5569,
      "ĠLand": 5570,
      "Ġassemb": 5571,
      "ĠNor": 5572,
      "burg": 5573,
      "ĠPsych": 5574,
      "ĠEngine": 5575,
      "arter": 5576,
      "ĠWomen": 5577,
      "Ġtitle": 5578,
      "VID": 5579,
      "atever": 5580,
      "ĠSmith": 5581,
      "Ġappeared": 5582,
      "Ġweap": 5583,
      "Ġsensitive": 5584,
      "Ġemployees": 5585,
      "Ġclosed": 5586,
      "Ġpig": 5587,
      "Ġresidents": 5588,
      "ĠMiddle": 5589,
      "Ġpu": 5590,
      "flow": 5591,
      "Ab": 5592,
      "ĠSea": 5593,
      "Ġtun": 5594,
      "Ġsyndrome": 5595,
      "Ġcontem": 5596,
      "Ġsed": 5597,
      "Ġdut": 5598,
      "ĠWind": 5599,
      "Ġacceler": 5600,
      "rid": 5601,
      "idden": 5602,
      "Ġ2019": 5603,
      "Ġdirector": 5604,
      "ĠDet": 5605,
      "32": 5606,
      "âĢĻ.": 5607,
      "Ġchief": 5608,
      "scale": 5609,
      "Ġmovements": 5610,
      "Ġpaid": 5611,
      "icks": 5612,
      "Ġmedications": 5613,
      "ĠRussia": 5614,
      "LM": 5615,
      "ĠCatholic": 5616,
      "Ġstages": 5617,
      "Ġhealthcare": 5618,
      "Ġjustice": 5619,
      "Ġleaving": 5620,
      "?âĢĿ": 5621,
      "irus": 5622,
      "Ġcircumst": 5623,
      "Ġlessons": 5624,
      "Another": 5625,
      "ĠMont": 5626,
      "ifies": 5627,
      "Ġrecognize": 5628,
      "Ġfloor": 5629,
      "Ġregularly": 5630,
      "ĠCarol": 5631,
      "Ġsides": 5632,
      "Ġmassive": 5633,
      "Ġtheore": 5634,
      "Ġinfected": 5635,
      "Ġconscious": 5636,
      "Ġcandid": 5637,
      "Ġinflammation": 5638,
      "Ġinteraction": 5639,
      "Ġ45": 5640,
      "Ġgun": 5641,
      "Ġdatabase": 5642,
      "Ġenable": 5643,
      "anes": 5644,
      "ĠSov": 5645,
      "Ġcorpor": 5646,
      "exp": 5647,
      "ĠHenry": 5648,
      "racy": 5649,
      "ĠFam": 5650,
      "More": 5651,
      "ĠUp": 5652,
      "Ġprotocol": 5653,
      "Ġmoral": 5654,
      "ĠSaf": 5655,
      "Ġsan": 5656,
      "iform": 5657,
      "Ġadvoc": 5658,
      "Ġimplementation": 5659,
      "Ġstated": 5660,
      "Ġabsolute": 5661,
      "lers": 5662,
      "Ġlaun": 5663,
      "ĠDel": 5664,
      "ellect": 5665,
      "ĠÎ": 5666,
      "Ġstret": 5667,
      "Ġexchange": 5668,
      "Ġalt": 5669,
      "Ġmillions": 5670,
      "Ġneighb": 5671,
      "ulin": 5672,
      "ĠKnow": 5673,
      "plicated": 5674,
      "iled": 5675,
      "Ġcolors": 5676,
      "Ġpure": 5677,
      "olve": 5678,
      "Ġsignals": 5679,
      "itors": 5680,
      "Ġages": 5681,
      "Ġinches": 5682,
      "Ġhorse": 5683,
      "ĠExpl": 5684,
      "Ġbusinesses": 5685,
      "ING": 5686,
      "Ġspiritual": 5687,
      "amics": 5688,
      "ĠLike": 5689,
      "Ġod": 5690,
      "bert": 5691,
      "rem": 5692,
      "ĠSte": 5693,
      "rus": 5694,
      "Ġindex": 5695,
      "Ġknew": 5696,
      "Ġingred": 5697,
      "Ġfixed": 5698,
      "erent": 5699,
      "ĠThrough": 5700,
      "ĠMake": 5701,
      "Ġcouple": 5702,
      "ypes": 5703,
      "Ġdescribes": 5704,
      "pping": 5705,
      "ocratic": 5706,
      "ĠCharles": 5707,
      "ÃŃ": 5708,
      "Ġshel": 5709,
      "being": 5710,
      "asp": 5711,
      "Ġeffectiveness": 5712,
      "raining": 5713,
      "osal": 5714,
      "rants": 5715,
      "Ġequival": 5716,
      "Ġfunding": 5717,
      "Ġderived": 5718,
      "ĠScient": 5719,
      "Ġtransition": 5720,
      "Ġamb": 5721,
      "Ġevaluate": 5722,
      "Ġadequ": 5723,
      "Ġlibrary": 5724,
      "Ġsick": 5725,
      "Ġsecondary": 5726,
      "85": 5727,
      "Ġtransmission": 5728,
      "Ġchain": 5729,
      "Ġincl": 5730,
      "Ġpump": 5731,
      "Ġsoldiers": 5732,
      "ĠSum": 5733,
      "Ġunknown": 5734,
      "Ġagriculture": 5735,
      "Ġnarr": 5736,
      "struction": 5737,
      "ola": 5738,
      "ava": 5739,
      "long": 5740,
      "Ġproducing": 5741,
      "mas": 5742,
      "Ġadopted": 5743,
      "allel": 5744,
      "ĠPower": 5745,
      "Ġraise": 5746,
      "cling": 5747,
      "Ġinject": 5748,
      "ĠPC": 5749,
      "Ġplays": 5750,
      "ota": 5751,
      "Ġtail": 5752,
      "Ġrevealed": 5753,
      "Ġunlike": 5754,
      "Ġprevention": 5755,
      "ĠStudies": 5756,
      "Ġhighlight": 5757,
      "Ġsubstance": 5758,
      "Ġrub": 5759,
      "Ġphr": 5760,
      "Ġaccomp": 5761,
      "cules": 5762,
      "Ġconsistent": 5763,
      "Ġchapter": 5764,
      "Ġpoet": 5765,
      "asive": 5766,
      "Ġentirely": 5767,
      "ĠHistor": 5768,
      "Ġlatter": 5769,
      "Ġparties": 5770,
      "HO": 5771,
      "Ġprompt": 5772,
      "Do": 5773,
      "Ġopinion": 5774,
      "inet": 5775,
      "esity": 5776,
      "ĠWild": 5777,
      "Ġguarant": 5778,
      "ĠCompany": 5779,
      "Ġ<": 5780,
      "agers": 5781,
      "Ġlandscape": 5782,
      "Ġleadership": 5783,
      "olf": 5784,
      "Us": 5785,
      "Ġrestrict": 5786,
      "Ġimpossible": 5787,
      "Ġera": 5788,
      "Ġcalls": 5789,
      "Ġimprovement": 5790,
      "ĠOx": 5791,
      "Ġtalking": 5792,
      "uilding": 5793,
      "Ġmanufacturing": 5794,
      "Ġneuro": 5795,
      "76": 5796,
      "Ġprove": 5797,
      "Ġcreative": 5798,
      "Ġhunt": 5799,
      "ĠLanguage": 5800,
      "ĠManagement": 5801,
      "Ġcomputers": 5802,
      "46": 5803,
      "Ġprem": 5804,
      "Ġextended": 5805,
      "ato": 5806,
      "Ġconventional": 5807,
      "Ġallerg": 5808,
      "Ġlifest": 5809,
      "Ġsimpl": 5810,
      "ĠEnvironmental": 5811,
      "Ġapart": 5812,
      "Ġble": 5813,
      "ĠRights": 5814,
      "ĠLibrary": 5815,
      "ĠFe": 5816,
      "ĠBet": 5817,
      "Ġnarrow": 5818,
      "Ġdental": 5819,
      "Ġmyth": 5820,
      "Ġexplo": 5821,
      "Ġbudget": 5822,
      "gent": 5823,
      "Ġpossess": 5824,
      "ibilities": 5825,
      "31": 5826,
      "88": 5827,
      "ĠGroup": 5828,
      "Ġrecip": 5829,
      "Ġanswers": 5830,
      "ka": 5831,
      "Ġunderstood": 5832,
      "Ġsurvival": 5833,
      "dden": 5834,
      "ĠNature": 5835,
      "Ġtrad": 5836,
      "Ġnormally": 5837,
      "Ġdensity": 5838,
      "ogue": 5839,
      "alian": 5840,
      "Ġfertil": 5841,
      "Ġsteel": 5842,
      "Ġtouch": 5843,
      "Ġpossibility": 5844,
      "Ġpossibly": 5845,
      "Ġintake": 5846,
      "attle": 5847,
      "abric": 5848,
      "Ġstruggle": 5849,
      "lements": 5850,
      "Ġcoff": 5851,
      "Ġimper": 5852,
      "Ġnurs": 5853,
      "Ġremote": 5854,
      "Ġsuccessfully": 5855,
      "Ġguidelines": 5856,
      "Ġdedic": 5857,
      "organ": 5858,
      "Ġtoler": 5859,
      "mary": 5860,
      "Ġlinear": 5861,
      "Ġgall": 5862,
      "ĠId": 5863,
      "pling": 5864,
      "Ġflight": 5865,
      "Ġoriginally": 5866,
      "anged": 5867,
      "teries": 5868,
      "Dr": 5869,
      "Ind": 5870,
      "ston": 5871,
      "Gen": 5872,
      "Ġalign": 5873,
      "Ġcomparison": 5874,
      "ĠRob": 5875,
      "la": 5876,
      "Ġfill": 5877,
      "CT": 5878,
      "ĠAp": 5879,
      "Ġworldwide": 5880,
      "Ġfigures": 5881,
      "Ġroutine": 5882,
      "Ġwors": 5883,
      "Ġunderlying": 5884,
      "liam": 5885,
      "ĠLouis": 5886,
      "ada": 5887,
      "Ġantibiot": 5888,
      "ĠDiv": 5889,
      "Ġsupplement": 5890,
      "Ġcapture": 5891,
      "Ġyield": 5892,
      "normal": 5893,
      "Ġratio": 5894,
      "Ġstored": 5895,
      "ĠWell": 5896,
      "Ġrepeated": 5897,
      "Ġspeaking": 5898,
      "Ġaccepted": 5899,
      "ĠMo": 5900,
      "Ġprepare": 5901,
      "Ġnan": 5902,
      "Ġ31": 5903,
      "othe": 5904,
      "LE": 5905,
      "Ġcars": 5906,
      "Ġwindow": 5907,
      "gence": 5908,
      "olester": 5909,
      "ĠPers": 5910,
      "ĠVirginia": 5911,
      "Ġfoundation": 5912,
      "Ġbeneficial": 5913,
      "Ġrepresentation": 5914,
      "ona": 5915,
      "Ġdecline": 5916,
      "Ġrobust": 5917,
      "osph": 5918,
      "ĠAlex": 5919,
      "Ġworse": 5920,
      "Ġregional": 5921,
      ".|": 5922,
      "Ġcomposition": 5923,
      "Ġgather": 5924,
      "acts": 5925,
      "Ġharmful": 5926,
      "Ġresponses": 5927,
      "Ġsudden": 5928,
      "rag": 5929,
      "reed": 5930,
      "aser": 5931,
      "500": 5932,
      "Ġbrown": 5933,
      "Ġreaders": 5934,
      "war": 5935,
      "ctic": 5936,
      "add": 5937,
      "lig": 5938,
      "omach": 5939,
      "Ġchoices": 5940,
      "ett": 5941,
      "Ġmamm": 5942,
      "ean": 5943,
      "Ġstick": 5944,
      "oto": 5945,
      "Ġmoon": 5946,
      "Ġpictures": 5947,
      "Ġopened": 5948,
      "Ġbones": 5949,
      "ait": 5950,
      "Ġsurf": 5951,
      "erals": 5952,
      "Ġmedication": 5953,
      "tering": 5954,
      "Ġabund": 5955,
      "Ġobjective": 5956,
      "Ġacts": 5957,
      "Ġlocations": 5958,
      "Ġdistrict": 5959,
      "Ġoutl": 5960,
      "ki": 5961,
      "Ġlisted": 5962,
      "Ġengage": 5963,
      "Ġdream": 5964,
      "ropical": 5965,
      "agues": 5966,
      "Ġvillage": 5967,
      "ĠDesign": 5968,
      "ashion": 5969,
      "47": 5970,
      "ansion": 5971,
      "Ġforests": 5972,
      "Ġsuc": 5973,
      "tic": 5974,
      "ye": 5975,
      "ĠAbout": 5976,
      "ĠDiff": 5977,
      "Ġaircraft": 5978,
      "Ġwarming": 5979,
      "aria": 5980,
      "Ġremaining": 5981,
      "abits": 5982,
      "Ġcrow": 5983,
      "During": 5984,
      "ĠIN": 5985,
      "Ġsentence": 5986,
      "ĠCle": 5987,
      "ĠReview": 5988,
      "orter": 5989,
      "Ġmixed": 5990,
      "hemical": 5991,
      "Ġparameters": 5992,
      "Ġaf": 5993,
      "Ġagreement": 5994,
      "oted": 5995,
      "Ġaer": 5996,
      "Ġleaf": 5997,
      "Ġplate": 5998,
      "ĠBro": 5999,
      "Ġstarts": 6000,
      "ĠCommon": 6001,
      "Ġtal": 6002,
      "Ġdemonstrated": 6003,
      "Ġproduces": 6004,
      "Ġglob": 6005,
      "ĠFlorida": 6006,
      "Ġmaintenance": 6007,
      "Ġarms": 6008,
      "DP": 6009,
      "Ġmechanisms": 6010,
      "Ġmac": 6011,
      "forcement": 6012,
      "prise": 6013,
      "olesterol": 6014,
      "Ġaccounts": 6015,
      "Ġgap": 6016,
      "Ġmarriage": 6017,
      "Ġhouses": 6018,
      "raction": 6019,
      "Ġaw": 6020,
      "Ġbattery": 6021,
      "ĠOffice": 6022,
      "imer": 6023,
      "Ġadministration": 6024,
      "Ġhandle": 6025,
      "Ġwildlife": 6026,
      "Ġexpressed": 6027,
      "no": 6028,
      "Ġcreates": 6029,
      "De": 6030,
      "Ġsports": 6031,
      "Ġafford": 6032,
      "Ġprofessionals": 6033,
      "Ġban": 6034,
      "ĠTer": 6035,
      "Ġprogramming": 6036,
      "liament": 6037,
      "ĠFederal": 6038,
      "Ġtow": 6039,
      "Other": 6040,
      "riting": 6041,
      "tage": 6042,
      "Ġperce": 6043,
      "Ġdust": 6044,
      "55": 6045,
      "Ġfeedback": 6046,
      "inder": 6047,
      "Ġfell": 6048,
      "Ġdoctors": 6049,
      "Ġunless": 6050,
      "Ġmountain": 6051,
      "ĠKen": 6052,
      "Ġinjuries": 6053,
      "Ġpretty": 6054,
      "Ġstudying": 6055,
      "Ġscholars": 6056,
      "ĠGood": 6057,
      "ĠAny": 6058,
      "Ġuniverse": 6059,
      "Ġsettings": 6060,
      "Ġaqu": 6061,
      "ĠTHE": 6062,
      "Ġjourney": 6063,
      "ĠCare": 6064,
      "Ġchart": 6065,
      "ĠFurthermore": 6066,
      "Ġapprec": 6067,
      "ĠRad": 6068,
      "ĠLabor": 6069,
      "Ġuncertain": 6070,
      "Ġpapers": 6071,
      "Ġancest": 6072,
      "Ġsurvive": 6073,
      "Ġdiscipl": 6074,
      "ĠMoreover": 6075,
      "ĠProfessor": 6076,
      "Ġlayers": 6077,
      "Ġthor": 6078,
      "ĠVis": 6079,
      "ĠLeg": 6080,
      "throp": 6081,
      "ĠISBN": 6082,
      "Ġinteractions": 6083,
      "Ġzero": 6084,
      "Ġassistance": 6085,
      "Ġelectronic": 6086,
      "Ġcourses": 6087,
      "Ġdifficulty": 6088,
      "Ġdecade": 6089,
      "born": 6090,
      "86": 6091,
      "Ġindeed": 6092,
      "Ġaspect": 6093,
      "Ġtwice": 6094,
      "Ġgreatly": 6095,
      "Ġcatch": 6096,
      "49": 6097,
      "Ġremark": 6098,
      "Ġdescription": 6099,
      "Ġ1999": 6100,
      "ini": 6101,
      "Ġcultiv": 6102,
      "Ġbio": 6103,
      "ĠLong": 6104,
      "Ġintervention": 6105,
      "Ġsell": 6106,
      "Ġmuseum": 6107,
      "Re": 6108,
      "ĠSoviet": 6109,
      "Ġagents": 6110,
      "89": 6111,
      "Te": 6112,
      "urd": 6113,
      "Ġmarine": 6114,
      "ĠConstitution": 6115,
      "Ġtiny": 6116,
      "Ġdoor": 6117,
      "Ġtells": 6118,
      "Ġshift": 6119,
      "zen": 6120,
      "hist": 6121,
      "Ġdistributed": 6122,
      "Ġcircuit": 6123,
      "Ġskill": 6124,
      "Ġwaves": 6125,
      "anda": 6126,
      "Ġenab": 6127,
      "ĠUSA": 6128,
      "Ġsweet": 6129,
      "ums": 6130,
      "Ġraw": 6131,
      "ĠProv": 6132,
      "Ġmolecules": 6133,
      "ĠEv": 6134,
      "oster": 6135,
      "Ġreject": 6136,
      "izer": 6137,
      "Ġfilled": 6138,
      "Ġartificial": 6139,
      "Ġhappy": 6140,
      "Ġoverl": 6141,
      "ĠGlobal": 6142,
      "gu": 6143,
      "ifications": 6144,
      "mic": 6145,
      "ĠParis": 6146,
      "inity": 6147,
      "Ġchildhood": 6148,
      "Ġdepos": 6149,
      "ĠColumb": 6150,
      "Ġrepresented": 6151,
      "ivery": 6152,
      "ester": 6153,
      "ĠOF": 6154,
      "stract": 6155,
      "Ġcamera": 6156,
      "ĠCommit": 6157,
      "ctive": 6158,
      "luding": 6159,
      "Ġvariable": 6160,
      "cel": 6161,
      "orrow": 6162,
      "Ġcircumstances": 6163,
      "Ġagencies": 6164,
      "IP": 6165,
      "icians": 6166,
      "atial": 6167,
      "ĠExp": 6168,
      "ĠLab": 6169,
      "Ġlands": 6170,
      "Ġclassification": 6171,
      "UR": 6172,
      "zed": 6173,
      "stein": 6174,
      "Ġunp": 6175,
      "Ġdynamic": 6176,
      "ĠCOVID": 6177,
      "ny": 6178,
      "ĠYet": 6179,
      "Ġopening": 6180,
      "under": 6181,
      "ushing": 6182,
      "Ġgal": 6183,
      "ican": 6184,
      "inating": 6185,
      "Ġuns": 6186,
      "Ġfailed": 6187,
      "Ġ1980": 6188,
      "Ġseeing": 6189,
      "Ġscene": 6190,
      "77": 6191,
      "ua": 6192,
      "Ġshell": 6193,
      "Ġdecide": 6194,
      "Ġwants": 6195,
      "Ġdownload": 6196,
      "Ġalle": 6197,
      "Ġcarefully": 6198,
      "ĠThose": 6199,
      "âĢĻ,": 6200,
      "Ġintellect": 6201,
      "weight": 6202,
      "aud": 6203,
      "Ġ500": 6204,
      "eper": 6205,
      "Ġlimits": 6206,
      "last": 6207,
      "ĠFrank": 6208,
      "ĠCanadian": 6209,
      "ocation": 6210,
      "Ġpull": 6211,
      "Ġslowly": 6212,
      "Ġcolour": 6213,
      "Ġindicates": 6214,
      "icide": 6215,
      "Ġbroken": 6216,
      "Ġtruly": 6217,
      "....": 6218,
      "Ġsharing": 6219,
      "Ġdeploy": 6220,
      ".âĢĻ": 6221,
      "Ġcritic": 6222,
      "ĠBre": 6223,
      "Ġconstra": 6224,
      "IL": 6225,
      "ĠAnn": 6226,
      "Ġlots": 6227,
      "Ġkit": 6228,
      "ĠDisease": 6229,
      "Ġaudience": 6230,
      "Ġbehaviors": 6231,
      "Ġopposite": 6232,
      "edu": 6233,
      "ĠPeter": 6234,
      "Ġgrav": 6235,
      "My": 6236,
      "Ġmachines": 6237,
      "Ġemotions": 6238,
      "ults": 6239,
      "ribed": 6240,
      "sis": 6241,
      "wing": 6242,
      "ĠAustralian": 6243,
      "ols": 6244,
      "Ġmaps": 6245,
      "Ġtraum": 6246,
      "ĠJoseph": 6247,
      "ĠNations": 6248,
      "Ġpair": 6249,
      "ĠNetwork": 6250,
      "Ġcompare": 6251,
      "ĠStreet": 6252,
      "ĠIll": 6253,
      "abul": 6254,
      "Ġmonitor": 6255,
      "ĠNatural": 6256,
      "Ġfewer": 6257,
      "Ġpreval": 6258,
      "Ġsupporting": 6259,
      "ĠAS": 6260,
      "Ġestimates": 6261,
      "EP": 6262,
      "Ġmarked": 6263,
      "ĠFinally": 6264,
      "Ġsod": 6265,
      "onal": 6266,
      "itudes": 6267,
      "IM": 6268,
      "Ġprincip": 6269,
      "Ġstable": 6270,
      "Ġtroops": 6271,
      "inking": 6272,
      "Ġdedicated": 6273,
      "Ġwitness": 6274,
      "ĠTor": 6275,
      "ĠTime": 6276,
      "Ġoptimal": 6277,
      "Ġresolution": 6278,
      "Ġinstitution": 6279,
      "Ġultimately": 6280,
      "Ġfunctional": 6281,
      "ocracy": 6282,
      "ĠVict": 6283,
      "Ġobservations": 6284,
      "pet": 6285,
      "ĠGold": 6286,
      "Ġdoubt": 6287,
      "Ġauthorities": 6288,
      "Ġrespir": 6289,
      "Ġ>": 6290,
      "rons": 6291,
      "Ġconsumers": 6292,
      "Ġrank": 6293,
      "ront": 6294,
      "Ġexists": 6295,
      "inction": 6296,
      "Ġstomach": 6297,
      "Ġsky": 6298,
      "Ġflav": 6299,
      "but": 6300,
      "ĠStudy": 6301,
      "Ġvessels": 6302,
      "ĠStat": 6303,
      "Ġfossil": 6304,
      "ĠSk": 6305,
      "Ġdoi": 6306,
      "world": 6307,
      "umes": 6308,
      "Ġ300": 6309,
      "Ġvirtual": 6310,
      "Ġpersist": 6311,
      "Ġrelax": 6312,
      "then": 6313,
      "Ġmanaged": 6314,
      "Ġpermanent": 6315,
      "Ġreplaced": 6316,
      "Ġaccum": 6317,
      "Ġneighbor": 6318,
      "Ġchosen": 6319,
      "NN": 6320,
      "Ġacids": 6321,
      "Ġpresents": 6322,
      "hand": 6323,
      "Ġdelay": 6324,
      "ĠEss": 6325,
      "ĠâĢ¢": 6326,
      "Ġinsects": 6327,
      "elled": 6328,
      "ĠOnly": 6329,
      "lets": 6330,
      "Ġwish": 6331,
      "Ġorganized": 6332,
      "Ġsupports": 6333,
      "yles": 6334,
      "ĠReport": 6335,
      "ventions": 6336,
      "hma": 6337,
      "Ġdatasets": 6338,
      "Ġwalking": 6339,
      "ĠPub": 6340,
      "Ġax": 6341,
      "Ġbear": 6342,
      "Ġlaboratory": 6343,
      "ĠStep": 6344,
      "ĠHaw": 6345,
      "Ġimmediate": 6346,
      "Ġvolunte": 6347,
      "Ġsmooth": 6348,
      "ictionary": 6349,
      "bra": 6350,
      "Ġ1970": 6351,
      "Ġconfidence": 6352,
      "Ġfiber": 6353,
      "Ġfly": 6354,
      "bing": 6355,
      "kes": 6356,
      "ena": 6357,
      "ML": 6358,
      "Ġcultures": 6359,
      "iology": 6360,
      "Ġcorn": 6361,
      "Ġfalse": 6362,
      "ĠClin": 6363,
      "urrent": 6364,
      "ban": 6365,
      "Ġfasc": 6366,
      "Ġrelation": 6367,
      "Ã¼": 6368,
      "Ġinhib": 6369,
      "Ġrespectively": 6370,
      "Ġnewsp": 6371,
      "Ġmaintaining": 6372,
      "Ġmagnetic": 6373,
      "Ġestimate": 6374,
      "Ġreader": 6375,
      "gans": 6376,
      "Ġcalcium": 6377,
      "ĠDan": 6378,
      "Ġnecessarily": 6379,
      "oned": 6380,
      "Ġcart": 6381,
      "Ġmild": 6382,
      "Ġparallel": 6383,
      "Ġcutting": 6384,
      "Ġinner": 6385,
      "orous": 6386,
      "Ġregist": 6387,
      "Ġphilosophy": 6388,
      "Ġnine": 6389,
      "Ġregul": 6390,
      "Ġdebate": 6391,
      "Ġethnic": 6392,
      "ĠRome": 6393,
      "Ġacknow": 6394,
      "ĠHall": 6395,
      "herent": 6396,
      "ĠCy": 6397,
      "Cont": 6398,
      "Ġlifestyle": 6399,
      "Ġ1998": 6400,
      "from": 6401,
      "Ġunable": 6402,
      "ĠIP": 6403,
      "Ġsight": 6404,
      "Se": 6405,
      "oral": 6406,
      "Ġhus": 6407,
      "Ġgluc": 6408,
      "Ġthousand": 6409,
      "word": 6410,
      "Ġattend": 6411,
      "erior": 6412,
      "zil": 6413,
      "phone": 6414,
      "Ġcloser": 6415,
      "Ġequivalent": 6416,
      "Ġcomplexity": 6417,
      "ĠGet": 6418,
      "Ġflo": 6419,
      "ĠForm": 6420,
      "hop": 6421,
      "Figure": 6422,
      "Ġuniversity": 6423,
      "ĠAdd": 6424,
      "Ġpron": 6425,
      "fortunately": 6426,
      "Ġregulations": 6427,
      "Ġwhereas": 6428,
      "En": 6429,
      "Ġdataset": 6430,
      "rine": 6431,
      "Ġvulnerable": 6432,
      "reland": 6433,
      "Ġbiggest": 6434,
      "Ġconcrete": 6435,
      "Ġvariables": 6436,
      "Ġreserv": 6437,
      "Ġ189": 6438,
      "ipping": 6439,
      "Ġcoffee": 6440,
      "Not": 6441,
      "Ġelectron": 6442,
      "ĠSouthern": 6443,
      "Ġcommunicate": 6444,
      "uses": 6445,
      "rd": 6446,
      "Ġdaughter": 6447,
      "Ġwriter": 6448,
      "Ġinstructions": 6449,
      "itivity": 6450,
      "Ġfabric": 6451,
      "aped": 6452,
      "Ġdesire": 6453,
      "Ġserver": 6454,
      "ĠSol": 6455,
      "Ġmanif": 6456,
      "atal": 6457,
      "Ġexperimental": 6458,
      "Ġbrand": 6459,
      "Ġexamine": 6460,
      "Ġhero": 6461,
      "stone": 6462,
      "IR": 6463,
      "Ġwww": 6464,
      "Ġdefine": 6465,
      "riers": 6466,
      "icago": 6467,
      "Ġnet": 6468,
      "Read": 6469,
      "Ġcholesterol": 6470,
      "Ġhoriz": 6471,
      "ĠKh": 6472,
      "Ġyounger": 6473,
      "Ġconstitution": 6474,
      "Ġmanip": 6475,
      "ĠBank": 6476,
      "Ġpup": 6477,
      "Ġbreathing": 6478,
      "Ġpurchase": 6479,
      "Ġdestroyed": 6480,
      "Ġhabits": 6481,
      "Ġdent": 6482,
      "ml": 6483,
      "mod": 6484,
      "omic": 6485,
      "Ġstands": 6486,
      "ĠEnd": 6487,
      "Ġtransportation": 6488,
      "Ġemployed": 6489,
      "emia": 6490,
      "Ġsmoking": 6491,
      "âĢĺ": 6492,
      "ĠMad": 6493,
      "ĠCult": 6494,
      "Ġfract": 6495,
      "sey": 6496,
      "Ġgone": 6497,
      "wo": 6498,
      "ella": 6499,
      "Ġarrived": 6500,
      "Ġnerve": 6501,
      "Ġvoc": 6502,
      "Ġdin": 6503,
      "Ġepid": 6504,
      "earchers": 6505,
      "Ġjoin": 6506,
      "bridge": 6507,
      "Ġspaces": 6508,
      "onia": 6509,
      "ĠOcean": 6510,
      "Ġreliable": 6511,
      "called": 6512,
      "ocy": 6513,
      "Ġends": 6514,
      "Ġconnections": 6515,
      "Ġtea": 6516,
      "cher": 6517,
      "Ġreduces": 6518,
      "Ġlisten": 6519,
      "Ġaims": 6520,
      "top": 6521,
      "hav": 6522,
      "iability": 6523,
      "Ġroof": 6524,
      "Ġdrawing": 6525,
      "Ġfighting": 6526,
      "Ġlies": 6527,
      "icious": 6528,
      "SS": 6529,
      "xts": 6530,
      "ribe": 6531,
      "Ġfeeding": 6532,
      "ĠRevolution": 6533,
      "ĠPM": 6534,
      "Ġcategories": 6535,
      "Since": 6536,
      "Ġrely": 6537,
      "Ġunus": 6538,
      "ĠHome": 6539,
      "ditional": 6540,
      "ca": 6541,
      "Ġfounded": 6542,
      "Ġpercentage": 6543,
      "rating": 6544,
      "ĠMa": 6545,
      "Ġcolleagues": 6546,
      "ĠGal": 6547,
      "Ġneck": 6548,
      "irty": 6549,
      "Ġmarried": 6550,
      "inson": 6551,
      "Ġstanding": 6552,
      "ĠIreland": 6553,
      "ĠItaly": 6554,
      "Ġmining": 6555,
      "ĠMill": 6556,
      "icon": 6557,
      "Ġembed": 6558,
      "ĠComput": 6559,
      "Ġframe": 6560,
      "Ġsegment": 6561,
      "azing": 6562,
      "itan": 6563,
      "roduction": 6564,
      "Ġhydrogen": 6565,
      "Ġcorrel": 6566,
      "Ġpsychological": 6567,
      "ita": 6568,
      "Ġconclusion": 6569,
      "cons": 6570,
      "ĠCommittee": 6571,
      "Ġhousing": 6572,
      "Ġmeasurements": 6573,
      "rix": 6574,
      "Ġourselves": 6575,
      "Ġagency": 6576,
      "Ġtrials": 6577,
      "Ġcompounds": 6578,
      "ĠAdminist": 6579,
      "Ġsucceed": 6580,
      "Ġrig": 6581,
      "Ġturns": 6582,
      "while": 6583,
      "ested": 6584,
      "Ġphotograph": 6585,
      "Ġsubs": 6586,
      "Ġchannel": 6587,
      "Ġthy": 6588,
      "arn": 6589,
      "fish": 6590,
      "Ġcontained": 6591,
      "sts": 6592,
      "Ġoccasion": 6593,
      "Ġtwenty": 6594,
      "Ġcontamin": 6595,
      "LA": 6596,
      "orses": 6597,
      "Ġorganisms": 6598,
      "Ġ185": 6599,
      "CD": 6600,
      "heast": 6601,
      "Ġrid": 6602,
      "Ġ36": 6603,
      "Ġproof": 6604,
      "Ġusage": 6605,
      "Ġcompetition": 6606,
      "Ġeld": 6607,
      "Ġinvolving": 6608,
      "Ġresulted": 6609,
      "Ġcos": 6610,
      "Ġrow": 6611,
      "Ġattached": 6612,
      "Ġsupplies": 6613,
      "ĠNorthern": 6614,
      "See": 6615,
      "Ġborder": 6616,
      "ĠCamp": 6617,
      "orph": 6618,
      "05": 6619,
      "Ġreactions": 6620,
      "Ġzone": 6621,
      "Ġcm": 6622,
      "isters": 6623,
      "ĠOh": 6624,
      "87": 6625,
      "Ġcustomers": 6626,
      "rovers": 6627,
      "uke": 6628,
      "Ġmembr": 6629,
      "espread": 6630,
      "ĠCancer": 6631,
      "Ġeastern": 6632,
      "ĠTimes": 6633,
      "Ġmode": 6634,
      "lar": 6635,
      "Ġobesity": 6636,
      "ups": 6637,
      "ĠPy": 6638,
      "rary": 6639,
      "BS": 6640,
      "Ġshut": 6641,
      "Ġbread": 6642,
      "itt": 6643,
      "Ġprev": 6644,
      "Stud": 6645,
      "ĠPract": 6646,
      "Ġtaste": 6647,
      "Ġrecept": 6648,
      "hether": 6649,
      "istical": 6650,
      "Ġterritory": 6651,
      "Ġveter": 6652,
      "Ġchrom": 6653,
      "Ġrising": 6654,
      "Ġmatch": 6655,
      "Ġaccident": 6656,
      "Ġshop": 6657,
      "ĠFree": 6658,
      "Ġcarb": 6659,
      "ĠEmpire": 6660,
      "Ġdelivery": 6661,
      "Ġparticipate": 6662,
      "Ġfrequent": 6663,
      "Ġvote": 6664,
      "gments": 6665,
      "Bl": 6666,
      "Ġintegrated": 6667,
      "anta": 6668,
      "42": 6669,
      "ĠCap": 6670,
      "Ġneur": 6671,
      "Ġrhy": 6672,
      "such": 6673,
      "Ġdisturb": 6674,
      "Ġscore": 6675,
      "ĠScot": 6676,
      "Ġdioxide": 6677,
      "Ġahead": 6678,
      "ĠAdditionally": 6679,
      "CA": 6680,
      "Ġpowers": 6681,
      "utch": 6682,
      "Ġ1960": 6683,
      "ĠRichard": 6684,
      "ĠMag": 6685,
      "Ġphysics": 6686,
      "Ġpolitics": 6687,
      "imensional": 6688,
      "ĠRoyal": 6689,
      "Ġbeliefs": 6690,
      "Ġrobot": 6691,
      "ĠModel": 6692,
      "Ġindependence": 6693,
      "Ġtransp": 6694,
      "Ġmeasurement": 6695,
      "irds": 6696,
      "Ġcrime": 6697,
      "ĠColor": 6698,
      "ĠSing": 6699,
      "teen": 6700,
      "ĠWood": 6701,
      "Ġfu": 6702,
      "Ã³": 6703,
      "making": 6704,
      "Ġsole": 6705,
      "ĠSpain": 6706,
      "UN": 6707,
      "Ġgrew": 6708,
      "Ġentry": 6709,
      "Can": 6710,
      "Ġtall": 6711,
      "Ġment": 6712,
      "comm": 6713,
      "ritis": 6714,
      "Ġwilling": 6715,
      "vised": 6716,
      "Ġknows": 6717,
      "Ġquantum": 6718,
      "Ġath": 6719,
      "Ġinstruments": 6720,
      "Ġbridge": 6721,
      "ĠCarolina": 6722,
      "Ġmice": 6723,
      "Ġemployment": 6724,
      "Ġpresentation": 6725,
      "fit": 6726,
      "ĠValley": 6727,
      "ione": 6728,
      "dr": 6729,
      "ĠFort": 6730,
      "01": 6731,
      "IA": 6732,
      "Ġpoison": 6733,
      "Ġfever": 6734,
      "nam": 6735,
      "ĠEth": 6736,
      "Ġblocks": 6737,
      "Ġdiagnosed": 6738,
      "ora": 6739,
      "Ġshif": 6740,
      "Ġinsurance": 6741,
      "Ġsurve": 6742,
      "Ġmm": 6743,
      "Ġwhatever": 6744,
      "text": 6745,
      "ĠÐ": 6746,
      "Ġpositions": 6747,
      "ĠSciences": 6748,
      "Ġvs": 6749,
      "Ġoperate": 6750,
      "ih": 6751,
      "ĠPenn": 6752,
      "hered": 6753,
      "Ġassociation": 6754,
      "Ġstroke": 6755,
      "Ġships": 6756,
      "Ġmeth": 6757,
      "Ġexpansion": 6758,
      "opic": 6759,
      "Ġjoined": 6760,
      "Ġconstructed": 6761,
      "American": 6762,
      "Ġgreenhouse": 6763,
      "Ġgenerations": 6764,
      "Ġtank": 6765,
      "Ġnearby": 6766,
      "Ġcomputing": 6767,
      "Ġscheme": 6768,
      "ading": 6769,
      "cycl": 6770,
      "how": 6771,
      "Ġadministr": 6772,
      "Ġrefuge": 6773,
      "Ġlegs": 6774,
      "Ġadvantages": 6775,
      "Ġsuperior": 6776,
      "ĠEarly": 6777,
      "asters": 6778,
      "anches": 6779,
      "Ġoffering": 6780,
      "plant": 6781,
      "ĠAcademy": 6782,
      "everal": 6783,
      "Ġdebt": 6784,
      "ĠAgricult": 6785,
      "Ġtight": 6786,
      "Ġ75": 6787,
      "Ġexplanation": 6788,
      "ĠHy": 6789,
      "itter": 6790,
      "char": 6791,
      "rial": 6792,
      "ugh": 6793,
      "Ġcomments": 6794,
      "Ġdepartment": 6795,
      "ĠOpen": 6796,
      "uh": 6797,
      "ĠWhere": 6798,
      "irt": 6799,
      "43": 6800,
      "Ġplayers": 6801,
      "Pe": 6802,
      "usiness": 6803,
      "Ġsupposed": 6804,
      "Ġteen": 6805,
      "Ġanalys": 6806,
      "Ġdiag": 6807,
      "ĠPan": 6808,
      "Ġ1997": 6809,
      "Ġconsidering": 6810,
      "ultane": 6811,
      "79": 6812,
      "eless": 6813,
      "Ġshot": 6814,
      "Ġmissing": 6815,
      "pan": 6816,
      "Ġholds": 6817,
      "Ġissued": 6818,
      "Ġbot": 6819,
      "ĠScott": 6820,
      "ymph": 6821,
      "Ġfashion": 6822,
      "uts": 6823,
      "Ġcats": 6824,
      "Ġsubstances": 6825,
      "isk": 6826,
      "ĠStr": 6827,
      "een": 6828,
      "esis": 6829,
      "Ġoutbre": 6830,
      "ĠBoard": 6831,
      "Ġimplemented": 6832,
      "Ġagent": 6833,
      "Ġconsumer": 6834,
      "aph": 6835,
      "ĠKeep": 6836,
      "Ġsmoke": 6837,
      "Ġclot": 6838,
      "Ġgeomet": 6839,
      "41": 6840,
      "Ġvoltage": 6841,
      "Ġtempor": 6842,
      "Ġwidespread": 6843,
      "Ġtexts": 6844,
      "Ġenables": 6845,
      "ĠMichael": 6846,
      "Ġstimul": 6847,
      "ĠGard": 6848,
      "Ġfunds": 6849,
      "occ": 6850,
      "%.": 6851,
      "Ġdefe": 6852,
      "Ġarrange": 6853,
      "Ġaccessible": 6854,
      "RA": 6855,
      "ĠClimate": 6856,
      "Let": 6857,
      "Ġforget": 6858,
      "%)": 6859,
      "Ġlect": 6860,
      "ĠEqu": 6861,
      "Ġelectro": 6862,
      "Ġstrongly": 6863,
      "etime": 6864,
      "Ġru": 6865,
      "ĠHave": 6866,
      "Ġtissues": 6867,
      "Ġmos": 6868,
      "Ġmarkets": 6869,
      "Ġske": 6870,
      "ĠChicago": 6871,
      "itely": 6872,
      "Ġspok": 6873,
      "Ġindustries": 6874,
      "ĠDespite": 6875,
      "aked": 6876,
      "Ġrecommendations": 6877,
      "Ġstring": 6878,
      "medi": 6879,
      "Ġmand": 6880,
      "ĠNative": 6881,
      "Ġsignificance": 6882,
      "ĠDig": 6883,
      "rite": 6884,
      "gical": 6885,
      "Ġroute": 6886,
      "Ġeveryday": 6887,
      "Ġorient": 6888,
      "aine": 6889,
      "IG": 6890,
      "Ġlaunched": 6891,
      "using": 6892,
      "Ġpainting": 6893,
      "Ġpra": 6894,
      "ĠAcc": 6895,
      "ented": 6896,
      "earing": 6897,
      "Ġswim": 6898,
      "Ġguidance": 6899,
      "avery": 6900,
      "Ġsheet": 6901,
      "Ġcovers": 6902,
      "ishment": 6903,
      "ĠNon": 6904,
      "hent": 6905,
      "Ġhole": 6906,
      "Ġscript": 6907,
      "Ġruns": 6908,
      "ala": 6909,
      "rox": 6910,
      "Ġerrors": 6911,
      "Ġflag": 6912,
      "________": 6913,
      "Ġputting": 6914,
      "Ġdrawn": 6915,
      "eenth": 6916,
      "Ġcategory": 6917,
      "Ġundert": 6918,
      "ĠAccess": 6919,
      "dule": 6920,
      "Ġongoing": 6921,
      "Ġpassage": 6922,
      "ureau": 6923,
      "brid": 6924,
      "Ġparticipation": 6925,
      "Ġmatters": 6926,
      "ighter": 6927,
      "Ġfold": 6928,
      "Ġgram": 6929,
      "Ã¶": 6930,
      "Ġspending": 6931,
      "Ġbrings": 6932,
      "abulary": 6933,
      "Ġrepair": 6934,
      "Ġdesigns": 6935,
      "olving": 6936,
      "Ġreven": 6937,
      "ĠEU": 6938,
      "Ġsections": 6939,
      "Ġwasn": 6940,
      "osion": 6941,
      "ĠBrazil": 6942,
      "Ġchick": 6943,
      "Ġcriteria": 6944,
      "Ġcryst": 6945,
      "Ġlegislation": 6946,
      "Ġworkshe": 6947,
      "Ġcontrols": 6948,
      "Of": 6949,
      "Ġreward": 6950,
      "Ġconfig": 6951,
      "Ġdesired": 6952,
      "Ġcounty": 6953,
      "ĠWik": 6954,
      "Ġstability": 6955,
      "Ġnone": 6956,
      "Ġdivision": 6957,
      "Ġcomposed": 6958,
      "66": 6959,
      "Ġstructural": 6960,
      "ĠAP": 6961,
      "Ġadequate": 6962,
      "Ġsatisf": 6963,
      "Ġexercises": 6964,
      "Ġ32": 6965,
      "esides": 6966,
      "ittle": 6967,
      "Ġtract": 6968,
      "Ġhem": 6969,
      "ushed": 6970,
      "ediatric": 6971,
      "Ġmeal": 6972,
      "ourage": 6973,
      "idential": 6974,
      "estion": 6975,
      "Ġcollaboration": 6976,
      "Ġmechanical": 6977,
      "umps": 6978,
      "ixture": 6979,
      "mes": 6980,
      "Ġdanger": 6981,
      "Ġcav": 6982,
      "inally": 6983,
      "Ġorgans": 6984,
      "oven": 6985,
      "Ġfer": 6986,
      "OC": 6987,
      "Ġinsulin": 6988,
      "Ġaward": 6989,
      "Ġbreath": 6990,
      "Ġsurfaces": 6991,
      "Ġcentre": 6992,
      "ĠAge": 6993,
      "class": 6994,
      "ĠEastern": 6995,
      "ĠBab": 6996,
      "Ġ150": 6997,
      "ĠBrown": 6998,
      "Ġcup": 6999,
      "Ġsacr": 7000,
      "Ġfulf": 7001,
      "Ġmeters": 7002,
      "ĠProp": 7003,
      "Ġtheories": 7004,
      "car": 7005,
      "Ġindicated": 7006,
      "Ġkidney": 7007,
      "Ġbench": 7008,
      "ĠItalian": 7009,
      "Ġforth": 7010,
      "bles": 7011,
      "ĠHoly": 7012,
      "Ġdepart": 7013,
      "ĠConn": 7014,
      "ĠGeorg": 7015,
      "Ġcommitted": 7016,
      "Ġpartner": 7017,
      "OL": 7018,
      "Ġended": 7019,
      "Ġfocuses": 7020,
      "Ġconven": 7021,
      "Ġreceiving": 7022,
      "Ġminerals": 7023,
      "Ġinstalled": 7024,
      "idity": 7025,
      "Ġagreed": 7026,
      "reek": 7027,
      "Ġneither": 7028,
      "Ġblind": 7029,
      "action": 7030,
      "ĠIII": 7031,
      "ĠVictor": 7032,
      "Ġstrict": 7033,
      "Ġrice": 7034,
      "Ġglucose": 7035,
      "operation": 7036,
      "Ġapproved": 7037,
      "azine": 7038,
      "Ġroles": 7039,
      "alls": 7040,
      "Ġvideos": 7041,
      "Ġtrip": 7042,
      "Ġholding": 7043,
      "Ġ1996": 7044,
      "Ġoutcome": 7045,
      "Ġblow": 7046,
      "ĠGuide": 7047,
      "Ġdamaged": 7048,
      "iration": 7049,
      "Ġbanks": 7050,
      "Ġviruses": 7051,
      "Ġrelief": 7052,
      "Ġcompris": 7053,
      "Ġanalyze": 7054,
      "gs": 7055,
      "ĠAdv": 7056,
      "Ġcapabilities": 7057,
      "ĠCreat": 7058,
      "Ġcolumn": 7059,
      "Ġadvert": 7060,
      "Ġbutter": 7061,
      "ĠWorks": 7062,
      "ĠMethod": 7063,
      "rooms": 7064,
      "Ġproportion": 7065,
      "Ġped": 7066,
      "Ġrivers": 7067,
      "Ġburning": 7068,
      "Ġproven": 7069,
      "Ġhardware": 7070,
      "usal": 7071,
      "Ġpublication": 7072,
      "Ġphoto": 7073,
      "iah": 7074,
      "eli": 7075,
      "gov": 7076,
      "Ġvac": 7077,
      "Ġtranslation": 7078,
      "Ġelection": 7079,
      "Ġcomplicated": 7080,
      "Ġhistoric": 7081,
      "Ġsatellite": 7082,
      "ĠBig": 7083,
      "Ġtons": 7084,
      "First": 7085,
      "ĠParty": 7086,
      "ostic": 7087,
      "Ġcaptured": 7088,
      "Ġannounced": 7089,
      "Ġimplications": 7090,
      "Ġstreet": 7091,
      "rency": 7092,
      "etics": 7093,
      "Ġdeclared": 7094,
      "Ġholid": 7095,
      "Ġmoisture": 7096,
      "ĠIrish": 7097,
      "Ġdependent": 7098,
      "Int": 7099,
      "Ġkne": 7100,
      "Ġcenters": 7101,
      "Ġvictims": 7102,
      "Ġconstantly": 7103,
      "Ġmolecular": 7104,
      "Ġille": 7105,
      "Ġintellectual": 7106,
      "Ġseeking": 7107,
      "Ġfurn": 7108,
      "Ġsomewhat": 7109,
      "Ġcontrovers": 7110,
      "Ġboy": 7111,
      "Ġinvestigate": 7112,
      "onds": 7113,
      "aired": 7114,
      "ĠMer": 7115,
      "Ġdys": 7116,
      "Ġring": 7117,
      "ĠCre": 7118,
      "Ġearn": 7119,
      "acco": 7120,
      "Ġmood": 7121,
      "Ġboys": 7122,
      "ĠTake": 7123,
      "Ġinfluenced": 7124,
      "Ġmessages": 7125,
      "ibl": 7126,
      "Ġphenomenon": 7127,
      "Ġuniversal": 7128,
      "Ġbiod": 7129,
      "Ġaband": 7130,
      "ĠEst": 7131,
      "itamin": 7132,
      "Ġangle": 7133,
      "opes": 7134,
      "ĠKingdom": 7135,
      "Ġidentification": 7136,
      "oples": 7137,
      "Ġentered": 7138,
      "Ġstatistics": 7139,
      "utrition": 7140,
      "Ġworry": 7141,
      "Ġenemy": 7142,
      "gers": 7143,
      "Ġarchae": 7144,
      "perform": 7145,
      "ĠPlant": 7146,
      "Ġcards": 7147,
      "ĠFace": 7148,
      "Ġ65": 7149,
      "ĠBefore": 7150,
      "Ġartists": 7151,
      "Ġintense": 7152,
      "ptions": 7153,
      "71": 7154,
      "Ġasking": 7155,
      "Ġnegot": 7156,
      "agraph": 7157,
      "Ġdestruction": 7158,
      "Ġturb": 7159,
      "apse": 7160,
      "Ġsubstantial": 7161,
      "Ġstre": 7162,
      "amins": 7163,
      "rane": 7164,
      "Ġturning": 7165,
      "Ġfro": 7166,
      "Ġfacility": 7167,
      "Ġsharp": 7168,
      "Ġrenewable": 7169,
      "ulty": 7170,
      "oir": 7171,
      "Ġspectrum": 7172,
      "Ġbabies": 7173,
      "Ġsubsequent": 7174,
      "Ġpreventing": 7175,
      "Ġfed": 7176,
      "Ġexamination": 7177,
      "Ġpharm": 7178,
      "Ġshapes": 7179,
      "Ġfemales": 7180,
      "Ġfix": 7181,
      "ĠServices": 7182,
      "quit": 7183,
      "aded": 7184,
      "ady": 7185,
      "Ġfilter": 7186,
      "Ġvolcan": 7187,
      "Ġpreparation": 7188,
      "ĠAtlantic": 7189,
      "Rec": 7190,
      "Ġrealize": 7191,
      "kins": 7192,
      "Ġtube": 7193,
      "Ġtub": 7194,
      "Ġmales": 7195,
      "thritis": 7196,
      "igate": 7197,
      "Ġtrouble": 7198,
      "ĠPolic": 7199,
      "ani": 7200,
      "Ġwait": 7201,
      "Ġnervous": 7202,
      "Ġnumer": 7203,
      "ĠSil": 7204,
      "Ġbath": 7205,
      "Ġlegisl": 7206,
      "eness": 7207,
      "Â·": 7208,
      "Your": 7209,
      "Ġplus": 7210,
      "Ġmortality": 7211,
      "Ġsimultane": 7212,
      "elesc": 7213,
      "Lear": 7214,
      "Ġscan": 7215,
      "ounded": 7216,
      "Ġ1995": 7217,
      "Ġpush": 7218,
      "igan": 7219,
      "Ġcalories": 7220,
      "health": 7221,
      "Ġcontemporary": 7222,
      "Ġconsiderable": 7223,
      "Ġproved": 7224,
      "Ġconversation": 7225,
      "Ġhun": 7226,
      "Ġloved": 7227,
      "Ġmetabol": 7228,
      "Ġitem": 7229,
      "ommod": 7230,
      "Ġparas": 7231,
      "Ġobserve": 7232,
      "rey": 7233,
      "Ġautomatically": 7234,
      "Qu": 7235,
      "Ġrocks": 7236,
      "ĠMartin": 7237,
      "ĠIndians": 7238,
      "otton": 7239,
      "ĠSecurity": 7240,
      "ĠYear": 7241,
      "Ġdose": 7242,
      "otes": 7243,
      "Ġmerely": 7244,
      "ĠFamily": 7245,
      "Ġattempts": 7246,
      "MP": 7247,
      "Ġhonor": 7248,
      "Ġwithd": 7249,
      "Ġpregnant": 7250,
      "Ġtheme": 7251,
      "Ġgrid": 7252,
      "Ġpounds": 7253,
      "ĠOxford": 7254,
      "ĠThough": 7255,
      "eries": 7256,
      "ĠWord": 7257,
      "Ġabnormal": 7258,
      "Ġfacing": 7259,
      "Ġinterpretation": 7260,
      "ivered": 7261,
      "arsh": 7262,
      "Ġsought": 7263,
      "Ġremoval": 7264,
      "Ġpy": 7265,
      "oom": 7266,
      "airy": 7267,
      "Ġseemed": 7268,
      "Ġengaged": 7269,
      "Ġabsence": 7270,
      "Ġcareful": 7271,
      "Ġearthqu": 7272,
      "ĠVer": 7273,
      "Ġcoastal": 7274,
      "ollowing": 7275,
      "Ġdiscrimination": 7276,
      "Over": 7277,
      "Comp": 7278,
      "Med": 7279,
      "Ġpand": 7280,
      "Ġconfirmed": 7281,
      "Ġhusband": 7282,
      "Ġrespiratory": 7283,
      "alities": 7284,
      "Ġextend": 7285,
      "Ġcharacterized": 7286,
      "aming": 7287,
      "Ġedition": 7288,
      "EE": 7289,
      "Ġspatial": 7290,
      "Even": 7291,
      "Ġforg": 7292,
      "Ġreveal": 7293,
      "Ġstronger": 7294,
      "Ġgradually": 7295,
      "Ġpeak": 7296,
      "theless": 7297,
      "ĠHill": 7298,
      "Ġimaging": 7299,
      "iary": 7300,
      "Ġrarely": 7301,
      "Ġplenty": 7302,
      "uality": 7303,
      "Ġformula": 7304,
      "CH": 7305,
      "arios": 7306,
      "iments": 7307,
      "Ġdollars": 7308,
      "ĠSat": 7309,
      "UT": 7310,
      "Ġdefense": 7311,
      "Ġbeauty": 7312,
      "Ġvariation": 7313,
      "atively": 7314,
      "Ġarts": 7315,
      "Ġfourth": 7316,
      "Ġprobability": 7317,
      "ĠCommunity": 7318,
      "ĠPo": 7319,
      "iral": 7320,
      "urric": 7321,
      "Ġmodified": 7322,
      "Ġcrim": 7323,
      "Ġintest": 7324,
      "Ġopposed": 7325,
      "Ġcommission": 7326,
      "Ġtargets": 7327,
      "greg": 7328,
      "iox": 7329,
      "84": 7330,
      "Ġbreeding": 7331,
      "Ġswitch": 7332,
      "Ġseconds": 7333,
      "ĠNaz": 7334,
      "pes": 7335,
      "Ġovercome": 7336,
      "Ġweapons": 7337,
      "Ġhorses": 7338,
      "ĠSometimes": 7339,
      "rowing": 7340,
      "Ġthanks": 7341,
      "Ġexplicit": 7342,
      "ĠTV": 7343,
      "Ġingredients": 7344,
      "Ġnest": 7345,
      "Ġgained": 7346,
      "Ġserving": 7347,
      "Ġidentifying": 7348,
      "ĠSpecial": 7349,
      "acher": 7350,
      "Ġbiology": 7351,
      "Ġteams": 7352,
      "Ġmaintained": 7353,
      "73": 7354,
      "Ġprivacy": 7355,
      "Ġdealing": 7356,
      "roat": 7357,
      "ailed": 7358,
      "Ġessentially": 7359,
      "Ġacute": 7360,
      "ĠAsian": 7361,
      "ĠViet": 7362,
      "Once": 7363,
      "Ġmoves": 7364,
      "MA": 7365,
      "Ġartist": 7366,
      "Ġowner": 7367,
      "itals": 7368,
      "Ġnewly": 7369,
      "ĠAmong": 7370,
      "Ġinvestigation": 7371,
      "ĠAgency": 7372,
      "ĠPop": 7373,
      "Ġsession": 7374,
      "Ġclothing": 7375,
      "83": 7376,
      "osh": 7377,
      "Ġassume": 7378,
      "Ġshock": 7379,
      "sm": 7380,
      "isted": 7381,
      "ĠLib": 7382,
      "htt": 7383,
      "ĠSup": 7384,
      "yal": 7385,
      "Ġrecover": 7386,
      "Ġpassing": 7387,
      "Ġnose": 7388,
      "Ġexcessive": 7389,
      "oln": 7390,
      "ĠZeal": 7391,
      "ruption": 7392,
      "Ġprohib": 7393,
      "Ġfavorite": 7394,
      "Ġarrest": 7395,
      "eren": 7396,
      "ĠMS": 7397,
      "ĠResources": 7398,
      "Ġperception": 7399,
      "Ġcircle": 7400,
      "ĠRom": 7401,
      "example": 7402,
      "Ġclassical": 7403,
      "Ġdifficulties": 7404,
      "Ġdemands": 7405,
      "isdom": 7406,
      "Ġsilver": 7407,
      "pled": 7408,
      "Ġjump": 7409,
      "cyclop": 7410,
      "akistan": 7411,
      "Ġfarming": 7412,
      "Ġofficers": 7413,
      "heric": 7414,
      "ĠLow": 7415,
      "otype": 7416,
      "Ġescape": 7417,
      "Ġimprovements": 7418,
      "Ġsigned": 7419,
      "Because": 7420,
      "outs": 7421,
      "df": 7422,
      "ohyd": 7423,
      "Ġfairly": 7424,
      "Ġinterpre": 7425,
      "heimer": 7426,
      "Ġuniform": 7427,
      "Ġinn": 7428,
      "Ġincred": 7429,
      "Ġbringing": 7430,
      "Ġbranches": 7431,
      "Ġcopper": 7432,
      "Ġinsert": 7433,
      "Ġirrit": 7434,
      "ĠWho": 7435,
      "Ġcombat": 7436,
      "Ġtut": 7437,
      "ĠSuper": 7438,
      "Ġinformed": 7439,
      "Ġobservation": 7440,
      "Ġbeings": 7441,
      "Ġid": 7442,
      "Ġdim": 7443,
      "Don": 7444,
      "Ġdrain": 7445,
      "ĠResp": 7446,
      "Ġbiom": 7447,
      "Ġserves": 7448,
      "Ġbranch": 7449,
      "Ġcorresponding": 7450,
      "rous": 7451,
      "ovascular": 7452,
      "Ġmathematics": 7453,
      "Ġmicrob": 7454,
      "charge": 7455,
      "ĠSign": 7456,
      "Ġprominent": 7457,
      "HD": 7458,
      "Ġessays": 7459,
      "Ġcarrying": 7460,
      "Ġmetric": 7461,
      "Ġlearners": 7462,
      "trans": 7463,
      "ĠMD": 7464,
      "ilation": 7465,
      "Ġsplit": 7466,
      "Ġdeeper": 7467,
      "Ġcoverage": 7468,
      "Ġvarieties": 7469,
      "Ġinher": 7470,
      "Ġprincipal": 7471,
      "illa": 7472,
      "ĠPet": 7473,
      "ĠMel": 7474,
      "rav": 7475,
      "Ġtowns": 7476,
      "Ġcontribution": 7477,
      "ogether": 7478,
      "ĠIndust": 7479,
      "ĠChange": 7480,
      "amination": 7481,
      "ĠZealand": 7482,
      "ĠChristmas": 7483,
      "oids": 7484,
      "Ġtreating": 7485,
      "Ġdisaster": 7486,
      "plete": 7487,
      "net": 7488,
      "ĠCheck": 7489,
      "Ġequally": 7490,
      "asty": 7491,
      "Ġclar": 7492,
      "ĠMach": 7493,
      "Ġplane": 7494,
      "olesc": 7495,
      "Ġheating": 7496,
      "ĠDar": 7497,
      "Ġslavery": 7498,
      "rene": 7499,
      "Ġcleaning": 7500,
      "ĠYoung": 7501,
      "Ġchlor": 7502,
      "Ġov": 7503,
      "Ġempt": 7504,
      "Ġencouraged": 7505,
      "72": 7506,
      "Ġclaimed": 7507,
      "ĠAnalysis": 7508,
      "IDS": 7509,
      "ĠDen": 7510,
      "hyd": 7511,
      "Ġparad": 7512,
      "Ġvisitors": 7513,
      "Ġobjectives": 7514,
      "riend": 7515,
      "Ġouter": 7516,
      "CE": 7517,
      "Ġwriters": 7518,
      "Ġjudge": 7519,
      "Ġlaunch": 7520,
      "81": 7521,
      "Ġscreening": 7522,
      "lishing": 7523,
      "Ġsensors": 7524,
      "Ġexamined": 7525,
      "Ġoverw": 7526,
      "Ġconsideration": 7527,
      "Ġdelivered": 7528,
      "Ġlie": 7529,
      "ĠDistrict": 7530,
      "peror": 7531,
      "Ġfung": 7532,
      "ĠPrinc": 7533,
      "Ġequation": 7534,
      "Ġconcerning": 7535,
      "Ġinnovation": 7536,
      "Ġsales": 7537,
      "Ġislands": 7538,
      "ependent": 7539,
      "Ġpit": 7540,
      "Ġthereby": 7541,
      "Ġ\\": 7542,
      "Ġmic": 7543,
      "aska": 7544,
      "Ġencoun": 7545,
      "Ġorbit": 7546,
      "Ġtheoretical": 7547,
      "Ġphotos": 7548,
      "Ġroughly": 7549,
      "Ġknowing": 7550,
      "Ġtrends": 7551,
      "Ġgut": 7552,
      "ĠIslam": 7553,
      "iana": 7554,
      "Ġradical": 7555,
      "Ġevil": 7556,
      "oston": 7557,
      "Ġlimitations": 7558,
      "Ġphosph": 7559,
      "Ġcrew": 7560,
      "Ġracial": 7561,
      "Ġintent": 7562,
      "Ġdetected": 7563,
      "Ġdriven": 7564,
      "ĠEr": 7565,
      "Ġchest": 7566,
      "Ġtemple": 7567,
      "Ġinfant": 7568,
      "produ": 7569,
      "semb": 7570,
      "Ġcompens": 7571,
      "Ġplanned": 7572,
      "ĠAdministration": 7573,
      "ĠAND": 7574,
      "ĠHeb": 7575,
      "Ġstead": 7576,
      "Ġexclus": 7577,
      "Ġthreats": 7578,
      "ĠEp": 7579,
      "specific": 7580,
      "Ġmicrosc": 7581,
      "Ġdescript": 7582,
      "74": 7583,
      "ĠSecret": 7584,
      "ĠGrand": 7585,
      "coming": 7586,
      "PR": 7587,
      "ĠBill": 7588,
      "Or": 7589,
      "Ġpanel": 7590,
      "haust": 7591,
      "Ġflower": 7592,
      "Ġmineral": 7593,
      "Ġhormone": 7594,
      "Ġroads": 7595,
      "Ġinspired": 7596,
      "Ġgrad": 7597,
      "esh": 7598,
      "Ġeliminate": 7599,
      "essions": 7600,
      "Ġneighborhood": 7601,
      "Su": 7602,
      "requ": 7603,
      "ĠDoes": 7604,
      "ĠList": 7605,
      "vard": 7606,
      "Ġguard": 7607,
      "Ġsensor": 7608,
      "otal": 7609,
      "Ġfalls": 7610,
      "Ġ400": 7611,
      "Ġunusual": 7612,
      "Ġgalax": 7613,
      "Ġscores": 7614,
      "including": 7615,
      "Ġinitially": 7616,
      "Ġcomfortable": 7617,
      "Ġproceed": 7618,
      "Ġmathematical": 7619,
      "Ġflows": 7620,
      "incoln": 7621,
      "Ġscenarios": 7622,
      "oga": 7623,
      "ĠCentre": 7624,
      "Ġexceed": 7625,
      "ĠLearn": 7626,
      "Ġassigned": 7627,
      "ĠSystems": 7628,
      "ĠRock": 7629,
      "Ġhence": 7630,
      "alm": 7631,
      "Ġscar": 7632,
      "ounce": 7633,
      "Ġsolving": 7634,
      "ipedia": 7635,
      "Ġexploration": 7636,
      "Ġadm": 7637,
      "Ġusual": 7638,
      "ooking": 7639,
      "Ġimagine": 7640,
      "Ġ)": 7641,
      "ĠSwed": 7642,
      "Ġ1950": 7643,
      "bar": 7644,
      "Ġheavily": 7645,
      "Ġaccommod": 7646,
      "Ġconj": 7647,
      "ĠArticle": 7648,
      "Ġminute": 7649,
      "Ġasthma": 7650,
      "Ġlake": 7651,
      "adder": 7652,
      "chen": 7653,
      "Ġstatements": 7654,
      "Ġdecreased": 7655,
      "Ġlaid": 7656,
      "Ġnitrogen": 7657,
      "Ġaudio": 7658,
      "ontal": 7659,
      "Ġdynamics": 7660,
      "amine": 7661,
      "Ġspin": 7662,
      "ĠDou": 7663,
      "Ġarray": 7664,
      "Ġlights": 7665,
      "Ġclient": 7666,
      "Ġdiameter": 7667,
      "Ġgro": 7668,
      "ĠMoon": 7669,
      "Ġhappening": 7670,
      "ĠCross": 7671,
      "ĠJac": 7672,
      "Ġmeasuring": 7673,
      "door": 7674,
      "Ġlogic": 7675,
      "vin": 7676,
      "Ġintensity": 7677,
      "ĠFigure": 7678,
      "Ġhealing": 7679,
      "print": 7680,
      "Ġsport": 7681,
      "ĠEngineering": 7682,
      "abeth": 7683,
      "Ġcriminal": 7684,
      "iological": 7685,
      "Ġinfect": 7686,
      "Ġfaced": 7687,
      "Ġsus": 7688,
      "Ġmarks": 7689,
      "Ġfishing": 7690,
      "ĠLo": 7691,
      "Ġrestric": 7692,
      "Ġpoem": 7693,
      "erving": 7694,
      "Ġwine": 7695,
      "'m": 7696,
      "ĠAngel": 7697,
      "ĠCurrent": 7698,
      "Ġprinted": 7699,
      "Ġpropag": 7700,
      "Ġhazard": 7701,
      "ĠSimilar": 7702,
      "onym": 7703,
      "ano": 7704,
      "sell": 7705,
      "Ġcham": 7706,
      "ao": 7707,
      "Ġ1994": 7708,
      "ĠGr": 7709,
      "Ġperm": 7710,
      "Ġcooking": 7711,
      "82": 7712,
      "Ġworst": 7713,
      "Ġintegration": 7714,
      "Ġisolated": 7715,
      "Ġelected": 7716,
      "Ġsenior": 7717,
      "Ġscientist": 7718,
      "Ġbreed": 7719,
      "ersonal": 7720,
      "Ġordered": 7721,
      "Le": 7722,
      "Ġfinished": 7723,
      "OD": 7724,
      "ĠNever": 7725,
      "yr": 7726,
      "Ġholes": 7727,
      "Ġhidden": 7728,
      "Ġdecor": 7729,
      "ĠDom": 7730,
      "ĠFund": 7731,
      "Ġanywhere": 7732,
      "Ġexception": 7733,
      "def": 7734,
      "oric": 7735,
      "Ġbigger": 7736,
      "Ġbomb": 7737,
      "ĠMen": 7738,
      "Am": 7739,
      "riz": 7740,
      "Ġcorrectly": 7741,
      "Ġflour": 7742,
      "Ġmold": 7743,
      "ĠDirector": 7744,
      "icate": 7745,
      "Ġunw": 7746,
      "Ġsched": 7747,
      "ograp": 7748,
      "Ġalter": 7749,
      "Ġresid": 7750,
      "Ġplot": 7751,
      "Ġgrain": 7752,
      "rays": 7753,
      "just": 7754,
      "ĠColl": 7755,
      "rison": 7756,
      "Ġabstract": 7757,
      "ĠSafety": 7758,
      "Ġadds": 7759,
      "rance": 7760,
      "aware": 7761,
      "Ġsuffered": 7762,
      "Ġdefend": 7763,
      "Ġdates": 7764,
      "Ġhoney": 7765,
      "rection": 7766,
      "Ġremind": 7767,
      "69": 7768,
      "Ġmg": 7769,
      "Ġsensitivity": 7770,
      "ĠTre": 7771,
      "ĠThree": 7772,
      "Ġdisrupt": 7773,
      "Ġregulation": 7774,
      "elfare": 7775,
      "Ġtropical": 7776,
      "Ġsizes": 7777,
      "Ġcash": 7778,
      "Ġpestic": 7779,
      "Ġliteracy": 7780,
      "Ġphysician": 7781,
      "Ġcab": 7782,
      "Ġinequ": 7783,
      "Ġstations": 7784,
      "Ġensuring": 7785,
      "Ġargue": 7786,
      "unicip": 7787,
      "Ġevolved": 7788,
      "Ġschedule": 7789,
      "Ġprovider": 7790,
      "Ġdirected": 7791,
      "va": 7792,
      "Ġrose": 7793,
      "she": 7794,
      "AA": 7795,
      "Ġinsights": 7796,
      "Ġabilities": 7797,
      "ĠForest": 7798,
      "ĠCast": 7799,
      "Ġprediction": 7800,
      "Ġtack": 7801,
      "Ġreasoning": 7802,
      "Ġwarning": 7803,
      "Ġtelevision": 7804,
      "Ġvel": 7805,
      "Ġfest": 7806,
      "Ġcomplications": 7807,
      "Ġpool": 7808,
      "ĠColumbia": 7809,
      "Ġhosp": 7810,
      "Ġcorner": 7811,
      "rot": 7812,
      "Ġprocessed": 7813,
      "Ġaccompan": 7814,
      "Ġfinds": 7815,
      "ali": 7816,
      "ĠOnline": 7817,
      "Ġles": 7818,
      "Ġinnovative": 7819,
      "Ġflexible": 7820,
      "Ġeditor": 7821,
      "Ġearliest": 7822,
      "Ġmodeling": 7823,
      "Ġvan": 7824,
      "ĠAff": 7825,
      "orted": 7826,
      "Ġsuscept": 7827,
      "Ġacquired": 7828,
      "Ġterror": 7829,
      "CP": 7830,
      "oured": 7831,
      "icted": 7832,
      "Ġtens": 7833,
      "Ġcort": 7834,
      "Ġstores": 7835,
      "ĠOper": 7836,
      "igue": 7837,
      "Ġrab": 7838,
      "Ed": 7839,
      "ĠSund": 7840,
      "asant": 7841,
      "ĠPakistan": 7842,
      "Ġplayer": 7843,
      "Ġcovering": 7844,
      "acent": 7845,
      "Ġmixture": 7846,
      "mm": 7847,
      "angle": 7848,
      "Ġvocabulary": 7849,
      "Ġcyber": 7850,
      "CR": 7851,
      "Ġinterface": 7852,
      "Ġrational": 7853,
      "Ġkilomet": 7854,
      "ĠJohnson": 7855,
      "itarian": 7856,
      "ĠOrganization": 7857,
      "Ġauthent": 7858,
      "Ġengineers": 7859,
      "Ġampl": 7860,
      "Ġstrengthen": 7861,
      "Ġmaybe": 7862,
      "Ġconsume": 7863,
      "itory": 7864,
      "Ġvariations": 7865,
      "ĠFour": 7866,
      "64": 7867,
      "Ġsoul": 7868,
      "aning": 7869,
      "Ġtraditions": 7870,
      "Ġprinting": 7871,
      "Ġinteractive": 7872,
      "Ġcaught": 7873,
      "ĠDev": 7874,
      "ette": 7875,
      "ourse": 7876,
      "etary": 7877,
      "Ġgrows": 7878,
      "Ġinsight": 7879,
      "zheimer": 7880,
      "ĠMot": 7881,
      "ĠPlease": 7882,
      "Ġlistening": 7883,
      "Ġpolar": 7884,
      "soft": 7885,
      "Ġavailability": 7886,
      "Ġdirections": 7887,
      "icular": 7888,
      "%,": 7889,
      "agon": 7890,
      "Ġpros": 7891,
      "ioxid": 7892,
      "fts": 7893,
      "Ġexhibit": 7894,
      "ĠSir": 7895,
      "ĠWindows": 7896,
      "vania": 7897,
      "ustain": 7898,
      "Ġdecay": 7899,
      "ĠJul": 7900,
      "Ġdriver": 7901,
      "iat": 7902,
      "ĠCoast": 7903,
      "Ġbacterial": 7904,
      "ĠIran": 7905,
      "Ġye": 7906,
      "ogenic": 7907,
      "Ġconqu": 7908,
      "Ġslaves": 7909,
      "ĠSurvey": 7910,
      "Ġalph": 7911,
      "ieval": 7912,
      "Ġepis": 7913,
      "Ġgranted": 7914,
      "Ġaddressed": 7915,
      "ishop": 7916,
      "Ġbrows": 7917,
      "Ġconcluded": 7918,
      "Ġenorm": 7919,
      "mers": 7920,
      "Ġemerging": 7921,
      "Ref": 7922,
      "Ġoptimization": 7923,
      "Ġreaching": 7924,
      "Ġwindows": 7925,
      "Ġviewed": 7926,
      "Ġamazing": 7927,
      "Ġproviders": 7928,
      "ima": 7929,
      "night": 7930,
      "Ġpin": 7931,
      "Ġdegrad": 7932,
      "ĠTable": 7933,
      "03": 7934,
      "arents": 7935,
      "ĠSupreme": 7936,
      "Ġheads": 7937,
      "Ġadverse": 7938,
      "Ġoccurring": 7939,
      "eut": 7940,
      "Ġstuff": 7941,
      "Ġrac": 7942,
      "Ġemphasis": 7943,
      "mentation": 7944,
      "Ġquantity": 7945,
      "Ġstrain": 7946,
      "Ġunion": 7947,
      "Ġaged": 7948,
      "Ġperforming": 7949,
      "ĠCell": 7950,
      "syl": 7951,
      "icing": 7952,
      "She": 7953,
      "Ġtransmit": 7954,
      "Co": 7955,
      "Ġsitting": 7956,
      "isco": 7957,
      "ĠSS": 7958,
      "ailable": 7959,
      "iture": 7960,
      "Ġslave": 7961,
      "Ġconce": 7962,
      "ĠAuthor": 7963,
      "Ġstake": 7964,
      "Ġparagraph": 7965,
      "Ġindigenous": 7966,
      "ĠWall": 7967,
      "Ġthermal": 7968,
      "ĠType": 7969,
      "ucky": 7970,
      "ĠChristians": 7971,
      "Ġphrase": 7972,
      "ĠPot": 7973,
      "Ġmoderate": 7974,
      "ĠHand": 7975,
      "ĠDeep": 7976,
      "Ġantibiotics": 7977,
      "izabeth": 7978,
      "Ġmusical": 7979,
      "ĠLead": 7980,
      "uten": 7981,
      "ĠLight": 7982,
      "archy": 7983,
      "Ġdense": 7984,
      "IF": 7985,
      "HS": 7986,
      "Ġapplying": 7987,
      "09": 7988,
      "Ġworship": 7989,
      "Ġwrites": 7990,
      "real": 7991,
      "Every": 7992,
      "ĠUr": 7993,
      "rolled": 7994,
      "ĠTim": 7995,
      "Ġceremon": 7996,
      "ĠSet": 7997,
      "Ġrect": 7998,
      "Ġcomprom": 7999,
      "ĠBoston": 8000,
      "Ġnarrative": 8001,
      "Ġattribut": 8002,
      "Ġdrought": 8003,
      "Ġmir": 8004,
      "Ġtables": 8005,
      "Ġ33": 8006,
      "icy": 8007,
      "Ġcharacteristic": 8008,
      "ĠFind": 8009,
      "Ġmur": 8010,
      "Ġgiant": 8011,
      "Ġcattle": 8012,
      "Ġswit": 8013,
      "Ġefficiently": 8014,
      "Comm": 8015,
      "Ġconference": 8016,
      "Ġversions": 8017,
      "ĠMinister": 8018,
      "Ġpreserve": 8019,
      "ĠStart": 8020,
      "holders": 8021,
      "amples": 8022,
      "Ġbees": 8023,
      "Ġregardless": 8024,
      "Ġprotecting": 8025,
      "Ġsunlight": 8026,
      "Ġsup": 8027,
      "Ġpandemic": 8028,
      "NS": 8029,
      "Ġweakness": 8030,
      "oys": 8031,
      "Ġdietary": 8032,
      "ĠProcess": 8033,
      "Per": 8034,
      "Ġaffecting": 8035,
      "ENT": 8036,
      "Ġmodule": 8037,
      "ĠTop": 8038,
      "arters": 8039,
      "ographical": 8040,
      "Ġwheel": 8041,
      "Ġasc": 8042,
      "ĠLiter": 8043,
      "box": 8044,
      "ĠScotland": 8045,
      "Ġpeoples": 8046,
      "Ġathlet": 8047,
      "Ġduty": 8048,
      "ĠPolicy": 8049,
      "Ġfunctioning": 8050,
      "Ġaimed": 8051,
      "Ġcommitment": 8052,
      "ĠVen": 8053,
      "century": 8054,
      "tles": 8055,
      "Ġfinger": 8056,
      "ĠLast": 8057,
      "itual": 8058,
      "ĠOhio": 8059,
      "gien": 8060,
      "angered": 8061,
      "Ġlosses": 8062,
      "enger": 8063,
      "Ġexperiencing": 8064,
      "DS": 8065,
      "Ġvitamins": 8066,
      "Ġorders": 8067,
      "Ġdisabilities": 8068,
      "ude": 8069,
      "Ġexhaust": 8070,
      "Ġpairs": 8071,
      "Ġconcentrations": 8072,
      "ĠLess": 8073,
      "lines": 8074,
      "ĠKar": 8075,
      "umer": 8076,
      "oli": 8077,
      "imensions": 8078,
      "Ġcoc": 8079,
      "',": 8080,
      "achers": 8081,
      "],": 8082,
      "ĠJeff": 8083,
      "Ġextension": 8084,
      "Ġprofit": 8085,
      "ĠNote": 8086,
      "antly": 8087,
      "Ġfocusing": 8088,
      "Ġlaser": 8089,
      "eh": 8090,
      "ĠLincoln": 8091,
      "Ġadvent": 8092,
      "Ġcommunications": 8093,
      "Ġcontributed": 8094,
      "arse": 8095,
      "Ġsentences": 8096,
      "omatic": 8097,
      "ĠLy": 8098,
      "Ġbias": 8099,
      "Ġmeals": 8100,
      "à¥": 8101,
      "02": 8102,
      "Ġinhabit": 8103,
      "ĠCambridge": 8104,
      "Ġsummary": 8105,
      "ĠPen": 8106,
      "reated": 8107,
      "ĠBased": 8108,
      "allow": 8109,
      "ĠMath": 8110,
      "Ġinterventions": 8111,
      "Ġtumor": 8112,
      "Ġproductivity": 8113,
      "ĠModern": 8114,
      "Ġforming": 8115,
      "yer": 8116,
      "Ġcoron": 8117,
      "athered": 8118,
      "ĠCode": 8119,
      "Ġprotective": 8120,
      "Ġregarded": 8121,
      "Ġfatty": 8122,
      "ercury": 8123,
      "Ġlip": 8124,
      "Ġliterary": 8125,
      "otherapy": 8126,
      "cking": 8127,
      "CL": 8128,
      "Ġemotion": 8129,
      "Ġsynthetic": 8130,
      "Ġremarkable": 8131,
      "Ġoldest": 8132,
      "Ġcooling": 8133,
      "ĠJo": 8134,
      "Ġsurge": 8135,
      "Ġrelie": 8136,
      "ĠHebrew": 8137,
      "ĠHospital": 8138,
      "Ġwheat": 8139,
      "ĠAlzheimer": 8140,
      "HA": 8141,
      "ogs": 8142,
      "ĠSar": 8143,
      "ĠUt": 8144,
      "ĠAssess": 8145,
      "ĠKorea": 8146,
      "Ġ;": 8147,
      "Ġprosp": 8148,
      "Ġpreced": 8149,
      "ansas": 8150,
      "ĠAR": 8151,
      "ifier": 8152,
      "Ġremed": 8153,
      "ĠForce": 8154,
      "Ġmountains": 8155,
      "Ġbag": 8156,
      "Ġcalling": 8157,
      "Ġfacilitate": 8158,
      "Ġlymph": 8159,
      "Ġacres": 8160,
      "ĠReading": 8161,
      "Ġpersonality": 8162,
      "ĠSand": 8163,
      "Ġseparated": 8164,
      "Ġvaccines": 8165,
      "TP": 8166,
      "ĠImp": 8167,
      "ruit": 8168,
      "Ġcolonial": 8169,
      "sylvania": 8170,
      "OM": 8171,
      "ĠFire": 8172,
      "56": 8173,
      "Ġ1992": 8174,
      "ĠNov": 8175,
      "Ġautism": 8176,
      "Ġprogramme": 8177,
      "Ġcodes": 8178,
      "Ġimproves": 8179,
      "Ġscenario": 8180,
      "Ġquarter": 8181,
      "aren": 8182,
      "06": 8183,
      "Ġupdated": 8184,
      "App": 8185,
      "ĠMah": 8186,
      "Ġcalculated": 8187,
      "Ġfaces": 8188,
      "59": 8189,
      "ĠIdent": 8190,
      "ĠDivision": 8191,
      "Ġtechnological": 8192,
      "Today": 8193,
      "Ġcompound": 8194,
      "ĠProtection": 8195,
      "Ġcustomer": 8196,
      "ĠUnfortunately": 8197,
      "ĠPrevention": 8198,
      "Ġpurs": 8199,
      "Ġresil": 8200,
      "Ġvertical": 8201,
      "ĠRoad": 8202,
      "Ã¢": 8203,
      "Ġtor": 8204,
      "Ġplanting": 8205,
      "Ġmanual": 8206,
      "ĠBack": 8207,
      "ema": 8208,
      "ayer": 8209,
      "Ġmatrix": 8210,
      "Ġlens": 8211,
      "ricts": 8212,
      "Ġcontributions": 8213,
      "Ġmine": 8214,
      "ĠWithout": 8215,
      "Ġfarms": 8216,
      "Ġboundaries": 8217,
      "Ġcompetitive": 8218,
      "Ġreporting": 8219,
      "erman": 8220,
      "Ġnice": 8221,
      "Ġoverwhel": 8222,
      "Ġmosquit": 8223,
      "Ġassets": 8224,
      "irms": 8225,
      "Ġgirl": 8226,
      "?\"": 8227,
      "Ġtaxes": 8228,
      "04": 8229,
      "Ġpsychology": 8230,
      "eping": 8231,
      "ĠCa": 8232,
      "Ġordinary": 8233,
      "Ġschem": 8234,
      "ba": 8235,
      "Ġchemistry": 8236,
      "ĠFather": 8237,
      "ĠEdward": 8238,
      "Ġbehavioral": 8239,
      "ĠHor": 8240,
      "igare": 8241,
      "Ġdemocracy": 8242,
      "quir": 8243,
      "ĠIV": 8244,
      "Ġdesert": 8245,
      "Ġgases": 8246,
      "utation": 8247,
      "Ġsettlement": 8248,
      "Ġseat": 8249,
      "Ġcounsel": 8250,
      "anned": 8251,
      "Ġfalling": 8252,
      "ĠTom": 8253,
      "People": 8254,
      "Ġsupplements": 8255,
      "Ġmigration": 8256,
      "aws": 8257,
      "Ġdeficiency": 8258,
      "ptic": 8259,
      "Ġnodes": 8260,
      "chain": 8261,
      "employ": 8262,
      "usalem": 8263,
      "ĠFacebook": 8264,
      "urolog": 8265,
      "ĠBul": 8266,
      "ĠChapter": 8267,
      "Ġmanufacturers": 8268,
      "Ġtob": 8269,
      "advant": 8270,
      "ĠLee": 8271,
      "ĠWay": 8272,
      "Ġton": 8273,
      "Ġelder": 8274,
      "Ġsampling": 8275,
      "apor": 8276,
      "mble": 8277,
      "ĠQueen": 8278,
      "Ġneutral": 8279,
      "Ġlungs": 8280,
      "Ġsmell": 8281,
      "uset": 8282,
      "ĠMichigan": 8283,
      "har": 8284,
      "Ġstatistical": 8285,
      "adow": 8286,
      "Ð°": 8287,
      "ecess": 8288,
      "Ġ1993": 8289,
      "Ġresearcher": 8290,
      "azon": 8291,
      "Ġmanaging": 8292,
      "actions": 8293,
      "ĠStar": 8294,
      "ĠContin": 8295,
      "Ġreasonable": 8296,
      "Ġeducators": 8297,
      "Ġforecast": 8298,
      "Ġherb": 8299,
      "ega": 8300,
      "Ġhier": 8301,
      "Ġaccurately": 8302,
      "Ġrhyth": 8303,
      "Ġkilling": 8304,
      "Ġsteam": 8305,
      ".).": 8306,
      "ĠPoint": 8307,
      "ĠHim": 8308,
      ")||": 8309,
      "mann": 8310,
      "Ġarguments": 8311,
      "Ġethical": 8312,
      "opyright": 8313,
      "BT": 8314,
      "Ġappointed": 8315,
      "lights": 8316,
      "Ġcomputational": 8317,
      "Ġsubstit": 8318,
      "Ġshoot": 8319,
      "ulpt": 8320,
      "ĠConservation": 8321,
      "Ġvisited": 8322,
      "cient": 8323,
      "rat": 8324,
      "Ġemerged": 8325,
      "adel": 8326,
      "ĠGeorgia": 8327,
      "quality": 8328,
      "usetts": 8329,
      "Ġconsumed": 8330,
      "Ġdisability": 8331,
      "Ġachieving": 8332,
      "Col": 8333,
      "ugg": 8334,
      "achusetts": 8335,
      "Ġdress": 8336,
      "dimensional": 8337,
      "zer": 8338,
      "ildren": 8339,
      "ĠIT": 8340,
      "Ġhall": 8341,
      "Ã¤": 8342,
      "Ġran": 8343,
      "Ġdance": 8344,
      "Ġstones": 8345,
      "disc": 8346,
      "Ġexciting": 8347,
      "Ġcure": 8348,
      "ĠAM": 8349,
      "Ð¾": 8350,
      "ĠBusiness": 8351,
      "una": 8352,
      "Ġheritage": 8353,
      ")|": 8354,
      "Ġscope": 8355,
      "Ġnom": 8356,
      "ials": 8357,
      "Ġtrauma": 8358,
      "Google": 8359,
      "ĠHeart": 8360,
      "Ġexpanded": 8361,
      "ĠDown": 8362,
      "Ġcardiovascular": 8363,
      "zym": 8364,
      "operative": 8365,
      "Ear": 8366,
      "ĠScholar": 8367,
      "Ġhypothesis": 8368,
      "Ġdominant": 8369,
      "Ġ95": 8370,
      "irth": 8371,
      "neys": 8372,
      "ĠDutch": 8373,
      "Ġpursu": 8374,
      "Ġduration": 8375,
      "Ġcarbohyd": 8376,
      "Ġlock": 8377,
      "Ġ55": 8378,
      "Ġharder": 8379,
      "erty": 8380,
      "hus": 8381,
      "Ġargued": 8382,
      "Ġdetermining": 8383,
      "Ġven": 8384,
      "Ġtobacco": 8385,
      "igned": 8386,
      "Ġillegal": 8387,
      "Ġcord": 8388,
      "vi": 8389,
      "Ġ2021": 8390,
      "Ġ1991": 8391,
      "Ġease": 8392,
      "Ġburied": 8393,
      "ĠBattle": 8394,
      "Ġchances": 8395,
      "Ġphysically": 8396,
      "Ġachievement": 8397,
      "Ġstyles": 8398,
      "hea": 8399,
      "Ġbelieves": 8400,
      "urches": 8401,
      "Ġpromise": 8402,
      "Ġadvis": 8403,
      "Ġinstances": 8404,
      "Ġbless": 8405,
      "etal": 8406,
      "Ġcotton": 8407,
      "Ġalive": 8408,
      "Ġbatteries": 8409,
      "OP": 8410,
      "omer": 8411,
      "Ġpointed": 8412,
      "Ġplain": 8413,
      "Ġofficer": 8414,
      "Ġpanels": 8415,
      "eting": 8416,
      "thon": 8417,
      "html": 8418,
      "Ġinitiative": 8419,
      "anger": 8420,
      "isting": 8421,
      "Ġnotion": 8422,
      "ĠCP": 8423,
      "ĠPalest": 8424,
      "berry": 8425,
      "Ġhumanity": 8426,
      "ipher": 8427,
      "amps": 8428,
      "ĠTry": 8429,
      "Ġcharged": 8430,
      "iva": 8431,
      "Ġrequirement": 8432,
      "Ġgast": 8433,
      "ĠPennsylvania": 8434,
      "Ġopposition": 8435,
      "Ġtong": 8436,
      "Ġadolesc": 8437,
      "ouds": 8438,
      "Ġcas": 8439,
      "EF": 8440,
      "Ġaddresses": 8441,
      "raq": 8442,
      "Ġpermission": 8443,
      "Ġnutrient": 8444,
      "Ġsocieties": 8445,
      "efficient": 8446,
      "Ġengaging": 8447,
      "Ġsubt": 8448,
      "Ġstopped": 8449,
      "ĠCat": 8450,
      "Part": 8451,
      "Ġhandling": 8452,
      "Ġattitude": 8453,
      "Ġurine": 8454,
      "Ġembra": 8455,
      "Ġchap": 8456,
      "Ġclassified": 8457,
      "Ġlists": 8458,
      "Ġwisdom": 8459,
      "ami": 8460,
      "Ġdrivers": 8461,
      "EG": 8462,
      "asts": 8463,
      "ĠDC": 8464,
      "Ġreverse": 8465,
      "Ġbutton": 8466,
      "through": 8467,
      "ĠBooks": 8468,
      "Ġantioxid": 8469,
      "Ġhybrid": 8470,
      "Note": 8471,
      "ĠRh": 8472,
      "Ġpert": 8473,
      "AB": 8474,
      "Ġranging": 8475,
      "urning": 8476,
      "ĠPur": 8477,
      "Ġritual": 8478,
      "Ġdramatic": 8479,
      "Ġ39": 8480,
      "Ġom": 8481,
      "Pre": 8482,
      "Ġmyst": 8483,
      "Ġexpectations": 8484,
      "ĠJerusalem": 8485,
      "Ġassumed": 8486,
      "Ġlowest": 8487,
      "Ġkeeps": 8488,
      "Ġtrigger": 8489,
      "Ġplanets": 8490,
      "Ġclock": 8491,
      "Ġmothers": 8492,
      "Ġpromising": 8493,
      "67": 8494,
      "Ġclients": 8495,
      "uum": 8496,
      "Ġauto": 8497,
      "asy": 8498,
      "Ġsimultaneously": 8499,
      ".'": 8500,
      "Ġtap": 8501,
      "Ġtemporary": 8502,
      "Ġfellow": 8503,
      "Ġflying": 8504,
      "oded": 8505,
      "ĠPolit": 8506,
      "ĠArctic": 8507,
      "ĠWil": 8508,
      "Ġwebsites": 8509,
      "Ġsect": 8510,
      "iger": 8511,
      "Ġintegr": 8512,
      "Ġmembrane": 8513,
      "Ġminimal": 8514,
      "Ġcancers": 8515,
      "Ġowned": 8516,
      "Ġpoetry": 8517,
      "ivest": 8518,
      "words": 8519,
      "lete": 8520,
      "08": 8521,
      "SP": 8522,
      "Ġflash": 8523,
      "Ġelsewhere": 8524,
      "Ġobst": 8525,
      "ĠElizabeth": 8526,
      "Ġwaiting": 8527,
      "erative": 8528,
      "Ġattach": 8529,
      "Ġroyal": 8530,
      "Ġspoken": 8531,
      "Ġgrains": 8532,
      "Ġmarketing": 8533,
      "unc": 8534,
      "ĠIss": 8535,
      "opher": 8536,
      "Pub": 8537,
      "ĠObs": 8538,
      "Ġincident": 8539,
      "olt": 8540,
      "Ġmetals": 8541,
      "uther": 8542,
      "fulness": 8543,
      "Ġfuels": 8544,
      "ipe": 8545,
      "ĠImm": 8546,
      "Ġpreferred": 8547,
      "eor": 8548,
      "Ġpromoting": 8549,
      "Ġshed": 8550,
      "ĠIslamic": 8551,
      "ĠâĨ": 8552,
      "Ġ1930": 8553,
      "ĠIns": 8554,
      "Ġmask": 8555,
      "section": 8556,
      "kind": 8557,
      "Ġadapted": 8558,
      "rize": 8559,
      "Ġremoving": 8560,
      "ĠFar": 8561,
      "Ġecological": 8562,
      "Ġtargeted": 8563,
      "Ġtick": 8564,
      "sen": 8565,
      "Ġspr": 8566,
      "Ġtribes": 8567,
      "Ġirrig": 8568,
      "Ġwider": 8569,
      "Ġentertain": 8570,
      "Ġperceived": 8571,
      "Ġhunting": 8572,
      "Ġinherent": 8573,
      "Ġmarg": 8574,
      "07": 8575,
      "ĠSpring": 8576,
      "ĠColorado": 8577,
      "ĠImpro": 8578,
      "Ġboat": 8579,
      "Ġcompost": 8580,
      "Ġfats": 8581,
      "ĠWal": 8582,
      "ĠpH": 8583,
      "Ġvegetation": 8584,
      "Ġlighting": 8585,
      "emb": 8586,
      "Ġpriority": 8587,
      "ĠInit": 8588,
      "Ġmanager": 8589,
      "Ġcontainer": 8590,
      "ĠCard": 8591,
      "Ġeru": 8592,
      "sor": 8593,
      "obile": 8594,
      "Ġcomplement": 8595,
      "Ġspray": 8596,
      "hire": 8597,
      "ĠRev": 8598,
      "Ġadvances": 8599,
      "ĠLin": 8600,
      "Ġoxid": 8601,
      "endment": 8602,
      "Ġfought": 8603,
      "ĠLi": 8604,
      "Ġexecutive": 8605,
      "ĠMassachusetts": 8606,
      "Ġversus": 8607,
      "Ġsimulation": 8608,
      "Ġcreatures": 8609,
      "Ġbalanced": 8610,
      "imm": 8611,
      "ĠFed": 8612,
      "Ġevaluated": 8613,
      "Ġanalog": 8614,
      "Ġconsciousness": 8615,
      "ĠÂ£": 8616,
      "Ġconclus": 8617,
      "istant": 8618,
      "erated": 8619,
      "ician": 8620,
      "Pr": 8621,
      "Get": 8622,
      "Ġenormous": 8623,
      "Ġpose": 8624,
      "ĠSpirit": 8625,
      "Ġdeeply": 8626,
      "asma": 8627,
      "Ġ48": 8628,
      "lear": 8629,
      "Ġequality": 8630,
      "Ġdiffer": 8631,
      "Ġevening": 8632,
      "Ġutility": 8633,
      "Ġquiet": 8634,
      "ĠHawai": 8635,
      "ĠLarge": 8636,
      "Ġsevent": 8637,
      "Ġevident": 8638,
      "Ġexped": 8639,
      "Ġlibr": 8640,
      "Ġthreatened": 8641,
      "Step": 8642,
      "Ġestablishment": 8643,
      "Ġfing": 8644,
      "Ġchannels": 8645,
      "Ġecosystems": 8646,
      "ĠBu": 8647,
      "Where": 8648,
      "ĠParliament": 8649,
      "Ġwonderful": 8650,
      "ailing": 8651,
      "Ġgenome": 8652,
      "Ġgent": 8653,
      "Ġmanifest": 8654,
      "ĠHead": 8655,
      "Ðµ": 8656,
      "LS": 8657,
      "Ġrecycling": 8658,
      "Ġlabour": 8659,
      "ĠGP": 8660,
      "idal": 8661,
      "Ġmeaningful": 8662,
      "Ġsettled": 8663,
      "Net": 8664,
      "Ġprox": 8665,
      "Ġmovie": 8666,
      "cyclopedia": 8667,
      "ĠCirc": 8668,
      "ĠOrig": 8669,
      "Ġthread": 8670,
      "Ġsafely": 8671,
      "Ġtip": 8672,
      "Ġstreets": 8673,
      "Ġconserv": 8674,
      "Ġcourts": 8675,
      "Ġpilot": 8676,
      "Ġhormones": 8677,
      "agnetic": 8678,
      "bean": 8679,
      "ĠAgain": 8680,
      "Car": 8681,
      "Ġreveals": 8682,
      "ĠFact": 8683,
      "ideo": 8684,
      "ocity": 8685,
      "unct": 8686,
      "Ġwatching": 8687,
      "play": 8688,
      "avirus": 8689,
      "elve": 8690,
      "Ġcolonies": 8691,
      "Ġfatigue": 8692,
      "Ġaggreg": 8693,
      "Ġprofile": 8694,
      "Ġanalyzed": 8695,
      "Ġrepresentative": 8696,
      "anted": 8697,
      "Ġtracking": 8698,
      "Ġvarying": 8699,
      "ĠJustice": 8700,
      "zo": 8701,
      "ivestock": 8702,
      "Ġrequiring": 8703,
      "Ġjur": 8704,
      "Ġassembly": 8705,
      "ĠConfed": 8706,
      "Ġexpertise": 8707,
      "ĠHarvard": 8708,
      "Also": 8709,
      "wan": 8710,
      "Ġinterior": 8711,
      "63": 8712,
      "ologically": 8713,
      "oul": 8714,
      "Ġhouseholds": 8715,
      "onomous": 8716,
      "Ġfisher": 8717,
      "About": 8718,
      "John": 8719,
      "Ġ37": 8720,
      "Ġengines": 8721,
      "ĠOl": 8722,
      "Ġconverted": 8723,
      "Ġbuff": 8724,
      "Ġpredicted": 8725,
      "Ġdefinitely": 8726,
      "Ġdifferently": 8727,
      "Ġastronom": 8728,
      "Ġuniversities": 8729,
      "Ġdimensions": 8730,
      "opl": 8731,
      "Ġcann": 8732,
      "Ġconvey": 8733,
      "'.": 8734,
      "Ġsymbols": 8735,
      "68": 8736,
      "Ġgravity": 8737,
      "imp": 8738,
      "Ġjoints": 8739,
      "uity": 8740,
      "Ġtelling": 8741,
      "Ġ34": 8742,
      "ranean": 8743,
      "aints": 8744,
      "encing": 8745,
      "Ġsaved": 8746,
      "Ġsodium": 8747,
      "Ġspecialized": 8748,
      "borne": 8749,
      "Ġempty": 8750,
      "Ġclothes": 8751,
      "Ġentering": 8752,
      "Ġpartial": 8753,
      "Ġtrick": 8754,
      "Ġguess": 8755,
      "izers": 8756,
      "hemistry": 8757,
      "Ġdistricts": 8758,
      "Ġcraft": 8759,
      "Ġengagement": 8760,
      "Ġanalyses": 8761,
      "ĠCub": 8762,
      "asm": 8763,
      "ĠBang": 8764,
      "Ġdism": 8765,
      "imation": 8766,
      "usive": 8767,
      "Ġconvert": 8768,
      "ĠChristianity": 8769,
      "books": 8770,
      "ĠOpt": 8771,
      "Ġtransmitted": 8772,
      "Ġequations": 8773,
      "Ġsummar": 8774,
      "Ġinfants": 8775,
      "iop": 8776,
      "ga": 8777,
      "uan": 8778,
      "Ġtraits": 8779,
      "Ġanticip": 8780,
      "Ġgly": 8781,
      "Ġdies": 8782,
      "ogene": 8783,
      "Ġcelebrated": 8784,
      "urable": 8785,
      "Ġresc": 8786,
      "Sim": 8787,
      "ĠNavy": 8788,
      "Ġfeels": 8789,
      "Ġacting": 8790,
      "Cons": 8791,
      "Ġconstraints": 8792,
      "Ġclassic": 8793,
      "dep": 8794,
      "Ġminds": 8795,
      "Ġthesis": 8796,
      "Ġviral": 8797,
      "bel": 8798,
      "neum": 8799,
      "ĠSeveral": 8800,
      "Ġreferences": 8801,
      "orig": 8802,
      "Ġstrike": 8803,
      "Ġfires": 8804,
      "Ġsustainability": 8805,
      "Ġcooperation": 8806,
      "Under": 8807,
      "forest": 8808,
      "Ġlosing": 8809,
      "Ġprey": 8810,
      "Ġrepresenting": 8811,
      "Ġaccompanied": 8812,
      "Ġtransc": 8813,
      "ĠIraq": 8814,
      "ĠTO": 8815,
      "raham": 8816,
      "ĠDrug": 8817,
      "ĠPhilipp": 8818,
      "Ġsoph": 8819,
      "Ġaddiction": 8820,
      "erally": 8821,
      "Ġdil": 8822,
      "Ġcommittee": 8823,
      "ĠSP": 8824,
      "Ġoccas": 8825,
      "Ġoptical": 8826,
      "Ġcrypt": 8827,
      "you": 8828,
      "Ġuncertainty": 8829,
      "Ġbeat": 8830,
      "ĠIslands": 8831,
      "Ġgrounds": 8832,
      "Ġneurons": 8833,
      "ĠClick": 8834,
      "Ġappeal": 8835,
      "gon": 8836,
      "Ġkingdom": 8837,
      "enced": 8838,
      "ĠID": 8839,
      "Ġscal": 8840,
      "Ġsequences": 8841,
      "Ġactively": 8842,
      "Ġshaped": 8843,
      "ĠLaboratory": 8844,
      "Ġbarriers": 8845,
      "feed": 8846,
      "Ġpractition": 8847,
      "Ġdevast": 8848,
      "ĠKey": 8849,
      "ĠStan": 8850,
      "mentia": 8851,
      "Ġcontrolling": 8852,
      "agen": 8853,
      "Ġdairy": 8854,
      "Ġchair": 8855,
      "Ġdating": 8856,
      "Ġoverview": 8857,
      "Ġbiodiversity": 8858,
      "53": 8859,
      "itting": 8860,
      "Ġnewspaper": 8861,
      "made": 8862,
      "rh": 8863,
      "agan": 8864,
      "Before": 8865,
      "ĠLittle": 8866,
      "Ġspecified": 8867,
      "erts": 8868,
      "Ġpeer": 8869,
      "RC": 8870,
      "ref": 8871,
      "Ġsaving": 8872,
      "Ġwearing": 8873,
      "Ġsculpt": 8874,
      "Ġpainful": 8875,
      "Ġaging": 8876,
      "bell": 8877,
      "Ġsemi": 8878,
      "olk": 8879,
      "ĠBuilding": 8880,
      "Ġdistribut": 8881,
      "Ġtact": 8882,
      "Ġprevalence": 8883,
      "Ġcub": 8884,
      "Ġcontinuing": 8885,
      "Ġunn": 8886,
      "Ġfo": 8887,
      "Ġlob": 8888,
      "ĠFrancisco": 8889,
      "Ġentit": 8890,
      "Ġmature": 8891,
      "Ġlifetime": 8892,
      "Ġraising": 8893,
      "Ġreadily": 8894,
      "fe": 8895,
      "Ġoblig": 8896,
      "Ġcough": 8897,
      "ĠProble": 8898,
      "ĠBlue": 8899,
      "ĠIndeed": 8900,
      "Ġfur": 8901,
      "ĠView": 8902,
      "Ġpupils": 8903,
      "Ġcandidate": 8904,
      "icts": 8905,
      "cal": 8906,
      "Ġatoms": 8907,
      "Ġ1920": 8908,
      "uscript": 8909,
      "ĠAlexander": 8910,
      "Ġminimize": 8911,
      "Ġfraction": 8912,
      "ashes": 8913,
      "Ġtab": 8914,
      "BM": 8915,
      "friend": 8916,
      "thod": 8917,
      "Ġrealized": 8918,
      "foot": 8919,
      "Ġviolent": 8920,
      "Ġspots": 8921,
      "Ġintention": 8922,
      "Ġembry": 8923,
      "bec": 8924,
      "Ġpill": 8925,
      "Ġdiscussions": 8926,
      "Ġweigh": 8927,
      "Ġloose": 8928,
      "Ġpassion": 8929,
      "Ġassert": 8930,
      "ĠEPA": 8931,
      "aka": 8932,
      "Ġreplacement": 8933,
      "plate": 8934,
      "reshold": 8935,
      "Ġaddressing": 8936,
      "Ġcul": 8937,
      "Ġlabels": 8938,
      "Ġcollective": 8939,
      "Ġsessions": 8940,
      "ĠTestament": 8941,
      "Ġ?": 8942,
      "ĠDO": 8943,
      "ĠCE": 8944,
      "ĠSunday": 8945,
      "Ġwelfare": 8946,
      "Ġstrategic": 8947,
      "uits": 8948,
      "ĠGulf": 8949,
      "Ġaccord": 8950,
      "Ġheter": 8951,
      "elescope": 8952,
      "Ġprovince": 8953,
      "ĠFil": 8954,
      "ĠAgriculture": 8955,
      "ĠCorn": 8956,
      "Ġverb": 8957,
      "Ġopinions": 8958,
      "Ġuncle": 8959,
      "ĠEconomic": 8960,
      "May": 8961,
      "ackson": 8962,
      "olves": 8963,
      "ĠConference": 8964,
      "Ġmedicines": 8965,
      "Ġham": 8966,
      "Ġchoosing": 8967,
      "Ġadaptation": 8968,
      "ĠBehav": 8969,
      "Ġvirtually": 8970,
      "Ġattitudes": 8971,
      "ila": 8972,
      "ĠDesc": 8973,
      "Ġsuit": 8974,
      "Ġwouldn": 8975,
      "2010": 8976,
      "irable": 8977,
      "ĠLevel": 8978,
      "Ġlogical": 8979,
      "Ġheaven": 8980,
      "AG": 8981,
      "Ġbare": 8982,
      "Ġsulf": 8983,
      "ĠPortug": 8984,
      "Ġexisted": 8985,
      "Ġbegun": 8986,
      "ĠOtt": 8987,
      "zyme": 8988,
      "Ġscat": 8989,
      "Ġcow": 8990,
      "Ġempir": 8991,
      "Ġexploring": 8992,
      "Ġoutbreak": 8993,
      "Ġcontents": 8994,
      "ĠWildlife": 8995,
      "Ġarise": 8996,
      "ĠSaint": 8997,
      "Ġhat": 8998,
      "Ġadopt": 8999,
      "Ġsad": 9000,
      "ĠLim": 9001,
      "Ġnutritional": 9002,
      "Ġmouse": 9003,
      "thew": 9004,
      "Ġtrace": 9005,
      "Sm": 9006,
      "Ġgrades": 9007,
      "Ġflexibility": 9008,
      "52": 9009,
      "Ġdrinks": 9010,
      "Ġtransformation": 9011,
      "Ġacknowled": 9012,
      "Ġdigestive": 9013,
      "ĠInvest": 9014,
      "ati": 9015,
      "Ġspinal": 9016,
      "Ġorigins": 9017,
      "Ġtrem": 9018,
      "ĠDyn": 9019,
      "ĠDigital": 9020,
      "Ġdevelops": 9021,
      "ĠCT": 9022,
      "lymp": 9023,
      "Ġconversion": 9024,
      "ĠGall": 9025,
      "inois": 9026,
      "rypt": 9027,
      "Ġgathered": 9028,
      "Ġregime": 9029,
      "Ġtends": 9030,
      "oves": 9031,
      "Ġinvolvement": 9032,
      "Ġvaried": 9033,
      "61": 9034,
      "Ġdevelopments": 9035,
      "cin": 9036,
      "ĠIncre": 9037,
      "ĠAsk": 9038,
      "Ġreaches": 9039,
      "ilst": 9040,
      "ĠPhot": 9041,
      "Ġstood": 9042,
      "ĠSelf": 9043,
      "ifice": 9044,
      "fast": 9045,
      "Ġshorter": 9046,
      "Ġhygien": 9047,
      "Ġreturns": 9048,
      "Ġtone": 9049,
      "raine": 9050,
      "ĠNext": 9051,
      "endar": 9052,
      "ĠPage": 9053,
      "Ġhospitals": 9054,
      "'d": 9055,
      "ĠPass": 9056,
      "Ġchromos": 9057,
      "icacy": 9058,
      "Ġchose": 9059,
      "Ġcheap": 9060,
      "ensed": 9061,
      "ĠSmall": 9062,
      "Ġwithdraw": 9063,
      "Ġevolutionary": 9064,
      "Ġmunicip": 9065,
      "Ġdisadvant": 9066,
      "ĠSem": 9067,
      "Ġrestoration": 9068,
      "Ġsystematic": 9069,
      "ĠConst": 9070,
      "Ġcirculation": 9071,
      "Ġfriendly": 9072,
      "worth": 9073,
      "Ġhabitats": 9074,
      "Ġmagnitude": 9075,
      "Ġwireless": 9076,
      "ocolate": 9077,
      "Ġvaries": 9078,
      "Ġassignment": 9079,
      "Ġholiday": 9080,
      "ĠAvoid": 9081,
      "Ġpione": 9082,
      "Ġsurgical": 9083,
      "oons": 9084,
      "ĠRam": 9085,
      "Ġgum": 9086,
      "math": 9087,
      "Ġpersonnel": 9088,
      "ĠHindu": 9089,
      "Ġresistant": 9090,
      "Ġmyself": 9091,
      "Ġseparation": 9092,
      "Ġrestore": 9093,
      "ĠIce": 9094,
      "Ġhaven": 9095,
      "amil": 9096,
      "Fig": 9097,
      "Ġseriously": 9098,
      "Ġlingu": 9099,
      "Ġaggressive": 9100,
      "Ġenhanced": 9101,
      "ĠCr": 9102,
      "ĠLos": 9103,
      "ĠUV": 9104,
      "Ġapparently": 9105,
      "LMs": 9106,
      "Ġplatforms": 9107,
      "ilson": 9108,
      "Ġinfluences": 9109,
      "Ġrepresentations": 9110,
      "Ġsatisfact": 9111,
      "Ġcalculate": 9112,
      "Ġcurve": 9113,
      "Ġrecre": 9114,
      "lected": 9115,
      "Ġpersu": 9116,
      "Ġprime": 9117,
      "ois": 9118,
      "uber": 9119,
      "roud": 9120,
      "Ġion": 9121,
      "Ġclub": 9122,
      "Ġscales": 9123,
      "Ġgenerating": 9124,
      "Ġbarrier": 9125,
      "62": 9126,
      "Ġincent": 9127,
      "ĠHelp": 9128,
      "RL": 9129,
      "Ġvictory": 9130,
      "ais": 9131,
      "ĠGar": 9132,
      "Ġburden": 9133,
      "apes": 9134,
      "Ġspan": 9135,
      "ĠIndones": 9136,
      "ĠDue": 9137,
      "regular": 9138,
      "Ġbreaking": 9139,
      "esium": 9140,
      "Ġsavings": 9141,
      "Ġphotographs": 9142,
      "Ġassociate": 9143,
      "Ġboundary": 9144,
      "Ġplanted": 9145,
      "Ġenabling": 9146,
      "Ġsciences": 9147,
      "cule": 9148,
      "Ġprecip": 9149,
      "Ġwars": 9150,
      "ĠFred": 9151,
      "after": 9152,
      "Ġgraduate": 9153,
      "Ġ38": 9154,
      "Ġextens": 9155,
      "ctors": 9156,
      "Ġbleeding": 9157,
      "Ġunlikely": 9158,
      "Ġdefault": 9159,
      "Ġpurchased": 9160,
      "Ġhal": 9161,
      "ĠHence": 9162,
      "ĠTreatment": 9163,
      "Ġsongs": 9164,
      "rium": 9165,
[...]
